<unk>	0
<s>	0
</s>	0
<pad>	0
<0x00>	0
<0x01>	0
<0x02>	0
<0x03>	0
<0x04>	0
<0x05>	0
<0x06>	0
<0x07>	0
<0x08>	0
<0x09>	0
<0x0A>	0
<0x0B>	0
<0x0C>	0
<0x0D>	0
<0x0E>	0
<0x0F>	0
<0x10>	0
<0x11>	0
<0x12>	0
<0x13>	0
<0x14>	0
<0x15>	0
<0x16>	0
<0x17>	0
<0x18>	0
<0x19>	0
<0x1A>	0
<0x1B>	0
<0x1C>	0
<0x1D>	0
<0x1E>	0
<0x1F>	0
<0x20>	0
<0x21>	0
<0x22>	0
<0x23>	0
<0x24>	0
<0x25>	0
<0x26>	0
<0x27>	0
<0x28>	0
<0x29>	0
<0x2A>	0
<0x2B>	0
<0x2C>	0
<0x2D>	0
<0x2E>	0
<0x2F>	0
<0x30>	0
<0x31>	0
<0x32>	0
<0x33>	0
<0x34>	0
<0x35>	0
<0x36>	0
<0x37>	0
<0x38>	0
<0x39>	0
<0x3A>	0
<0x3B>	0
<0x3C>	0
<0x3D>	0
<0x3E>	0
<0x3F>	0
<0x40>	0
<0x41>	0
<0x42>	0
<0x43>	0
<0x44>	0
<0x45>	0
<0x46>	0
<0x47>	0
<0x48>	0
<0x49>	0
<0x4A>	0
<0x4B>	0
<0x4C>	0
<0x4D>	0
<0x4E>	0
<0x4F>	0
<0x50>	0
<0x51>	0
<0x52>	0
<0x53>	0
<0x54>	0
<0x55>	0
<0x56>	0
<0x57>	0
<0x58>	0
<0x59>	0
<0x5A>	0
<0x5B>	0
<0x5C>	0
<0x5D>	0
<0x5E>	0
<0x5F>	0
<0x60>	0
<0x61>	0
<0x62>	0
<0x63>	0
<0x64>	0
<0x65>	0
<0x66>	0
<0x67>	0
<0x68>	0
<0x69>	0
<0x6A>	0
<0x6B>	0
<0x6C>	0
<0x6D>	0
<0x6E>	0
<0x6F>	0
<0x70>	0
<0x71>	0
<0x72>	0
<0x73>	0
<0x74>	0
<0x75>	0
<0x76>	0
<0x77>	0
<0x78>	0
<0x79>	0
<0x7A>	0
<0x7B>	0
<0x7C>	0
<0x7D>	0
<0x7E>	0
<0x7F>	0
<0x80>	0
<0x81>	0
<0x82>	0
<0x83>	0
<0x84>	0
<0x85>	0
<0x86>	0
<0x87>	0
<0x88>	0
<0x89>	0
<0x8A>	0
<0x8B>	0
<0x8C>	0
<0x8D>	0
<0x8E>	0
<0x8F>	0
<0x90>	0
<0x91>	0
<0x92>	0
<0x93>	0
<0x94>	0
<0x95>	0
<0x96>	0
<0x97>	0
<0x98>	0
<0x99>	0
<0x9A>	0
<0x9B>	0
<0x9C>	0
<0x9D>	0
<0x9E>	0
<0x9F>	0
<0xA0>	0
<0xA1>	0
<0xA2>	0
<0xA3>	0
<0xA4>	0
<0xA5>	0
<0xA6>	0
<0xA7>	0
<0xA8>	0
<0xA9>	0
<0xAA>	0
<0xAB>	0
<0xAC>	0
<0xAD>	0
<0xAE>	0
<0xAF>	0
<0xB0>	0
<0xB1>	0
<0xB2>	0
<0xB3>	0
<0xB4>	0
<0xB5>	0
<0xB6>	0
<0xB7>	0
<0xB8>	0
<0xB9>	0
<0xBA>	0
<0xBB>	0
<0xBC>	0
<0xBD>	0
<0xBE>	0
<0xBF>	0
<0xC0>	0
<0xC1>	0
<0xC2>	0
<0xC3>	0
<0xC4>	0
<0xC5>	0
<0xC6>	0
<0xC7>	0
<0xC8>	0
<0xC9>	0
<0xCA>	0
<0xCB>	0
<0xCC>	0
<0xCD>	0
<0xCE>	0
<0xCF>	0
<0xD0>	0
<0xD1>	0
<0xD2>	0
<0xD3>	0
<0xD4>	0
<0xD5>	0
<0xD6>	0
<0xD7>	0
<0xD8>	0
<0xD9>	0
<0xDA>	0
<0xDB>	0
<0xDC>	0
<0xDD>	0
<0xDE>	0
<0xDF>	0
<0xE0>	0
<0xE1>	0
<0xE2>	0
<0xE3>	0
<0xE4>	0
<0xE5>	0
<0xE6>	0
<0xE7>	0
<0xE8>	0
<0xE9>	0
<0xEA>	0
<0xEB>	0
<0xEC>	0
<0xED>	0
<0xEE>	0
<0xEF>	0
<0xF0>	0
<0xF1>	0
<0xF2>	0
<0xF3>	0
<0xF4>	0
<0xF5>	0
<0xF6>	0
<0xF7>	0
<0xF8>	0
<0xF9>	0
<0xFA>	0
<0xFB>	0
<0xFC>	0
<0xFD>	0
<0xFE>	0
<0xFF>	0
।	-3.1176
▁ते	-3.52914
▁ता	-3.64464
▁अन	-4.534
,	-4.65688
▁	-4.75283
▁तुन	-4.78476
▁त	-4.81924
ंग	-4.82237
ा	-4.86104
ह	-4.86441
ी	-4.88198
न	-4.92215
क	-4.92998
ना	-4.97256
र	-4.99846
-	-5.00931
▁भारत	-5.0113
य	-5.03414
▁न	-5.17835
ल	-5.26966
स	-5.35749
म	-5.38531
▁गला	-5.42182
▁ना	-5.4256
▁ओर	-5.42698
▁आपुना	-5.50644
े	-5.51362
ता	-5.55473
▁तह	-5.56887
▁इद	-5.60881
▁आयता	-5.64151
त	-5.66021
▁मानेय	-5.66632
▁ने	-5.68024
ला	-5.68245
▁तंग	-5.69277
▁होही	-5.69894
▁आंद	-5.7131
▁एर्र	-5.73075
ट	-5.74618
▁कि	-5.77623
▁बाटा	-5.79697
▁कुबैय	-5.8509
ग	-5.87545
द	-5.96232
▁संग	-5.98852
▁उन्द	-6.00638
प	-6.01999
ले	-6.02039
▁माट	-6.04958
व	-6.05968
▁अद	-6.07278
▁।	-6.0733
ि	-6.07594
▁कियाना	-6.09233
ं	-6.09491
िंग	-6.10255
▁नन्ना	-6.1143
▁मंता	-6.12127
्	-6.12804
▁कुन	-6.15393
▁लोर	-6.17256
ज	-6.18348
▁कियना	-6.18581
ो	-6.18638
▁तोर	-6.19142
▁बूतो	-6.19329
ाना	-6.23043
ड	-6.23333
▁देश	-6.23469
1	-6.28716
▁स	-6.28844
▁कीतुर	-6.2918
▁ब	-6.29672
का	-6.33
सोर	-6.33259
▁मावा	-6.34574
0	-6.34777
▁?	-6.3671
▁लेहका	-6.38019
▁मति	-6.38229
ब	-6.39307
च	-6.39857
ड़	-6.39943
▁दे	-6.42686
ने	-6.43097
▁बेरा	-6.4373
▁सपोय	-6.44687
ु	-6.46369
▁नना	-6.49795
ड़	-6.50219
▁पोल्लो	-6.51063
▁बाता	-6.53861
2	-6.5494
रा	-6.55575
▁उंद	-6.56463
▁सपय	-6.57554
ू	-6.58701
▁मुन्ने	-6.59195
▁कीसोर	-6.59834
▁बने	-6.60451
▁निम्मा	-6.61859
्स	-6.62039
ोर	-6.62187
▁मन्ता	-6.62328
▁आ	-6.63739
)	-6.63839
▁कुबेय	-6.6438
▁आन्द	-6.64767
▁आयर	-6.65235
▁(	-6.65266
▁लाव	-6.66131
▁मंद	-6.67181
वा	-6.67475
▁जीवा	-6.68994
▁मायना	-6.69222
▁दा	-6.70502
ते	-6.70802
यता	-6.70949
▁ग	-6.71103
▁कीस	-6.71253
री	-6.71596
तोर	-6.72217
▁तो	-6.73092
▁दिया	-6.7405
▁बेस	-6.74842
्क	-6.75459
▁सेवा	-6.76117
▁माने	-6.76208
▁मता	-6.76926
▁जिंल्गी	-6.77374
▁प	-6.79473
▁जी	-6.79663
▁द	-6.80062
▁डेरा	-6.83001
▁वड़	-6.85242
▁व	-6.85696
तुर	-6.85954
▁आयो	-6.86053
▁नन्‍ना	-6.86452
▁उ	-6.86981
▁नुंग	-6.88509
▁की	-6.88895
▁हर्र	-6.88943
▁ह	-6.89215
▁क	-6.8952
र्र	-6.9017
▁म	-6.93515
▁नावा	-6.94257
▁ओना	-6.95623
▁आत	-6.95915
▁पहर	-6.96135
▁बिचर	-6.96383
▁आता	-6.9782
?	-6.98743
▁मान	-6.98834
▁अपुना	-6.98967
नंग	-6.99194
▁भारतीय	-6.99411
▁पूना	-6.99827
▁आस	-6.99938
नुंग	-7.00586
दे	-7.01052
कुन	-7.01352
▁किया	-7.01833
▁काम	-7.02643
िक	-7.0304
▁ज	-7.03253
▁कागेत	-7.04673
▁अ	-7.04825
▁तयहामंज	-7.0505
दा	-7.05461
यतोर	-7.05861
▁बा	-7.05876
मा	-7.08691
▁गोक	-7.0897
ित	-7.08984
▁पु	-7.09487
ंद	-7.10899
िया	-7.1247
▁मत्ता	-7.12579
▁हर	-7.12748
न्द	-7.12844
्र	-7.12974
▁अव	-7.1332
▁मा	-7.13945
▁पीला	-7.14883
▁कम	-7.15005
▁-	-7.15218
▁गिर्रदा	-7.15725
के	-7.15739
.	-7.16243
▁मतोर	-7.16714
▁पंड	-7.16906
ार	-7.17201
5	-7.1725
▁राम	-7.17551
▁आयना	-7.18553
▁जरूरी	-7.1942
▁ल	-7.19812
▁इदेक	-7.20683
▁बिचार	-7.21276
▁पिर्र	-7.21584
▁को	-7.21815
्य	-7.22148
लोर	-7.22697
की	-7.22894
▁आयी	-7.22991
्त	-7.2305
▁मास	-7.23107
ंज	-7.23702
▁कास	-7.23781
▁बि	-7.24052
▁नाकुन	-7.2527
▁च	-7.25615
ोन	-7.25819
▁ले	-7.25916
श	-7.26324
▁पर	-7.27181
▁इ	-7.27259
9	-7.27961
्ट	-7.2801
▁बूम	-7.28239
▁जो	-7.28262
▁रंग	-7.29313
▁का	-7.29489
▁तून	-7.30187
रे	-7.30764
▁सा	-7.31636
ुर	-7.31754
▁से	-7.32082
ती	-7.33093
ान	-7.33725
ूर	-7.34271
▁र	-7.35612
▁केवालोर	-7.36086
▁जिलंगी	-7.36176
ंड	-7.36343
ोम	-7.36503
▁इदम	-7.37567
▁राज	-7.3789
▁के	-7.38143
3	-7.3826
फ	-7.38294
ेर	-7.38359
▁आयतंग	-7.38717
▁माकुन	-7.39784
▁मायता	-7.40114
▁आन्ता	-7.40995
जा	-7.41344
▁इव	-7.41591
▁वेह	-7.41824
▁पड़हे	-7.41915
ण	-7.42563
▁पड़हे	-7.42866
▁मारे	-7.43148
▁कोट	-7.4334
िन	-7.43402
▁कीले	-7.43429
▁पोल्‍लो	-7.44457
▁बुमकाल	-7.448
▁जागा	-7.45623
ींग	-7.45731
या	-7.45777
▁सरकार	-7.45825
▁मन	-7.4604
▁मु	-7.46142
▁वरसा	-7.46242
▁ए	-7.46245
हा	-7.46334
▁पुट	-7.46535
ली	-7.46551
▁ही	-7.46729
▁ओ	-7.47093
सा	-7.47836
▁मंदर	-7.48838
गा	-7.48933
▁बेरहा	-7.49037
ीय	-7.49137
▁लोरा	-7.49388
िह	-7.49462
▁कयो	-7.49491
ै	-7.49568
बा	-7.49776
हना	-7.49943
▁किययतोर	-7.49992
नह	-7.50137
▁नेंड	-7.50737
▁नार्र	-7.50767
क्	-7.51001
▁अन्	-7.51006
▁नि	-7.51259
▁लोन	-7.51752
▁मात	-7.52006
▁वि	-7.52819
▁जन	-7.5297
▁मीले	-7.53073
▁बोर	-7.53169
▁सं	-7.53228
▁अस्के	-7.53461
तंग	-7.53611
▁एत	-7.53831
8	-7.53965
ायता	-7.54174
▁ला	-7.54348
▁अर	-7.54414
▁पर्र	-7.55022
्‍	-7.55727
िय	-7.55818
▁माय	-7.56082
7	-7.56083
▁कोसित	-7.56219
ाय	-7.567
ई	-7.5672
ध	-7.56721
ति	-7.5705
▁हेरे	-7.57867
ख	-7.57894
▁वायना	-7.58216
▁दायना	-7.58774
▁गाटो	-7.5942
▁रूप	-7.59427
▁ओन	-7.59508
वालोर	-7.596
तूर	-7.5983
▁पेर	-7.60163
▁वा	-7.60385
▁बे	-7.60473
4	-7.61116
उ	-7.61574
▁बानी	-7.61996
▁जोर	-7.62272
ुम	-7.62597
यतंग	-7.62993
▁पो	-7.63187
हाना	-7.63277
▁हि	-7.63372
▁गु	-7.63378
इ	-7.64214
▁शिक्षा	-7.64228
न्ना	-7.64687
▁सबले	-7.64728
▁पोर्रो	-7.6538
▁पर्रेक	-7.65478
▁मो	-7.6579
▁किययता	-7.65834
▁कीत	-7.66165
▁मन्द	-7.66232
टा	-7.66646
▁हुड़	-7.66667
▁इदेन	-7.67523
▁इर्र	-7.67971
▁बदले	-7.68272
▁कारेन	-7.68412
▁नंग	-7.68421
▁दारा	-7.6844
▁हूड़	-7.68681
▁काजे	-7.69326
▁जादा	-7.69738
▁कु	-7.7031
6	-7.70548
▁मे	-7.70754
▁वे	-7.71068
▁सि	-7.71738
▁मुक	-7.73451
▁पि	-7.74535
▁बारे	-7.74591
▁आसोर	-7.74622
▁मंजल	-7.74696
▁बुम	-7.74712
▁उद	-7.74743
▁सु	-7.74879
▁प्र	-7.75133
ाई	-7.75815
▁मनता	-7.75907
▁मूड़	-7.75925
▁रीति	-7.76178
ण्ड	-7.76253
▁चले	-7.76402
▁गो	-7.76755
दी	-7.76875
▁पाटा	-7.77636
▁पोरोय	-7.78129
▁माता	-7.78205
s	-7.78228
▁वेर	-7.78249
▁माक	-7.78393
▁अदेन	-7.78508
▁किसान	-7.78544
डा	-7.7879
▁हे	-7.78954
थ	-7.78995
▁नह	-7.79119
▁वेहट	-7.79126
▁सड़ग	-7.79204
▁आय	-7.79255
▁कोलान	-7.79747
▁कीला	-7.79756
▁आंता	-7.8102
ाल	-7.81147
▁बो	-7.81166
▁तोह	-7.81439
▁सम	-7.81642
▁पेन	-7.82053
▁कर्र	-7.82843
▁मूड़	-7.82846
▁केंज	-7.82872
▁हियाना	-7.8293
▁फ	-7.83121
▁कर्रस	-7.83139
▁उपयोग	-7.84415
जी	-7.8459
वाल	-7.84948
▁मतोना	-7.85126
िस	-7.85386
▁चलेह	-7.85449
▁हो	-7.85578
▁जरमे	-7.85665
▁आंदन	-7.85995
त्त	-7.86037
▁विज्ञान	-7.86096
▁भ	-7.86284
a	-7.87003
▁आपूना	-7.87534
वल	-7.87608
तेक	-7.87923
ॉ	-7.88593
▁मि	-7.89223
ीर	-7.89763
▁लेंग	-7.90109
ड़ा	-7.90189
ुन	-7.9022
▁कियायतोर	-7.90266
▁मिले	-7.90486
पा	-7.90708
टी	-7.90923
▁रा	-7.91174
▁मुने	-7.91422
सी	-7.91598
िर	-7.91706
िट	-7.92114
▁समाज	-7.92231
ीन	-7.92308
▁मंतंग	-7.92628
िनुंग	-7.92754
▁कियाला	-7.92906
e	-7.9295
ेन	-7.93287
▁ओरलोर	-7.93657
स्क	-7.94032
o	-7.94321
/	-7.9442
▁बी	-7.94585
बे	-7.94776
तोना	-7.94849
वार	-7.95227
i	-7.95279
▁मोका	-7.95407
▁जलसा	-7.95569
▁ओदा	-7.95704
▁मंदुर	-7.95783
▁हु	-7.95895
भ	-7.95965
▁काल	-7.96549
▁इगा	-7.96566
▁मोहन	-7.96752
▁लगे	-7.96855
t	-7.97155
▁पू	-7.97476
▁किस	-7.98073
▁उप	-7.98356
नी	-7.98594
वर	-7.98626
▁बातय	-7.98682
यना	-7.98697
▁हाटुम	-7.98777
तुन	-7.98825
िल	-7.98949
▁पंडाना	-7.99028
को	-7.99093
▁हीतुर	-7.99359
टे	-7.99453
▁सीता	-7.99539
▁पूरा	-7.99882
▁वाय	-8.00072
▁मदेद	-8.0012
▁मंदना	-8.00286
ंक	-8.00707
पे	-8.00826
▁मायतोर	-8.01312
▁जि	-8.018
▁पा	-8.02022
ेह	-8.02157
▁श	-8.02381
▁मंदानुर	-8.02404
▁मनवालोर	-8.02411
▁ड	-8.02466
▁बोरे	-8.02673
▁मुखिया	-8.02909
्ना	-8.02929
▁ति	-8.03178
ठ	-8.03519
▁पुना	-8.03567
वे	-8.03569
तन	-8.03605
▁योजना	-8.03693
▁हा	-8.03832
▁कोटुम	-8.04048
▁सी	-8.04332
▁ओरा	-8.04383
डे	-8.04551
ए	-8.047
▁कोल	-8.04998
▁कीया	-8.05108
▁लो	-8.0511
▁कीयाना	-8.05216
▁अस	-8.05264
▁ऊ	-8.05306
रो	-8.05315
▁सीना	-8.05318
▁नेल	-8.05377
:	-8.05907
▁इदेना	-8.06015
▁पड़	-8.06357
िना	-8.06381
▁पीलंग	-8.06937
यतोना	-8.07229
▁लेक	-8.08003
▁अलग	-8.08209
▁अवनह	-8.08849
ाट	-8.09124
▁मत्तोर	-8.0929
▁वड़क	-8.09573
▁विकास	-8.0976
▁बुतो	-8.09993
कार	-8.10065
▁ट	-8.10155
▁हक	-8.10176
▁ताना	-8.10198
▁आपुन	-8.10227
▁जुक्स	-8.1042
▁डा	-8.10667
लो	-8.10838
▁नाह्क	-8.10917
u	-8.11058
▁पे	-8.11182
ः	-8.11276
मी	-8.11426
▁पद	-8.11852
▁पुन	-8.11964
▁गल्ला	-8.1203
ूम	-8.12753
▁वड़िय	-8.1283
▁कर	-8.13049
▁तोड़िय	-8.13099
▁जा	-8.13626
▁पर्रता	-8.14191
▁मुयतह	-8.14217
मे	-8.14232
▁केयतुर	-8.14245
▁रेल	-8.1434
हे	-8.14515
▁हिया	-8.14722
अ	-8.14795
ों	-8.14882
▁निमा	-8.14993
पुर	-8.15006
▁उचुय	-8.15063
▁मन्‍ता	-8.15334
▁बर्स	-8.15591
▁मातुर	-8.15713
▁गे	-8.16116
▁पीलानुंग	-8.1623
▁कीतूर	-8.16267
▁किय	-8.16477
ायतोर	-8.165
▁सुक	-8.16867
न्‍ना	-8.16887
▁ई	-8.17042
▁रे	-8.17285
न्ता	-8.17379
कि	-8.17447
▁अगा	-8.17517
▁केवल	-8.17633
▁ख	-8.17777
ूंग	-8.1794
▁हिय	-8.1806
▁तड़य	-8.18087
ड़ी	-8.1822
▁आन्‍द	-8.18364
ुल	-8.18403
जन	-8.18509
▁चि	-8.18516
▁इदे	-8.18631
्सोर	-8.18641
▁पर्रतोर	-8.18716
▁डोडा	-8.1879
▁उन्‍द	-8.18837
आ	-8.18892
▁रण्ड	-8.19133
▁बरोबर	-8.19948
ान्तोर	-8.20874
▁माले	-8.20968
▁सुरेश	-8.21149
▁बदम	-8.21187
▁रो	-8.21189
िग	-8.21194
्म	-8.21334
▁आया	-8.21409
▁अदेना	-8.21712
▁नाहक	-8.21886
▁बरस	-8.22203
▁प्रधानमंत्री	-8.2236
▁तास	-8.22364
▁ओहनह	-8.22384
▁तरीका	-8.22612
ेय	-8.2265
▁गुरूजी	-8.22864
पी	-8.22884
▁बोद्दे	-8.22914
न्	-8.23027
हयता	-8.23071
ंस	-8.23218
▁लोते	-8.23251
▁स्कूल	-8.23594
▁बेहरा	-8.23661
r	-8.23762
ही	-8.23805
▁मरा	-8.23811
ाम	-8.24051
क्ष	-8.24057
▁इतुर	-8.24137
▁कर्रिय	-8.24224
▁छ	-8.24712
न्तोर	-8.24847
▁असके	-8.25351
▁बदलेह	-8.25473
चा	-8.25632
▁वर्षा	-8.25909
लेर	-8.25942
ानुर	-8.25977
▁राज्य	-8.26369
▁आई	-8.26491
▁पी	-8.26673
▁कीय	-8.27372
▁वित	-8.27598
▁बु	-8.27858
▁कोट्टुम	-8.27915
्व	-8.27929
▁हियना	-8.2798
ानंग	-8.28322
▁मुयतड़	-8.28433
▁नडुम	-8.28662
▁कुंदा	-8.28678
▁कागेतिंग	-8.29182
नता	-8.29323
न्दुर	-8.29339
हर	-8.29394
ंत	-8.29404
▁अटके	-8.29512
तोरोम	-8.29718
▁अद्द	-8.2983
कट	-8.29936
▁बिसवास	-8.29969
ौ	-8.2998
▁आस्क	-8.30186
▁डे	-8.30548
▁सो	-8.30673
▁वड़क	-8.31018
्या	-8.31068
▁मोदी	-8.3138
▁सुरता	-8.31655
ल्ल	-8.31693
कर	-8.31708
▁जु	-8.31728
▁पायदा	-8.3185
▁एर	-8.31976
▁लागर	-8.32051
▁ऐ	-8.32181
▁मर्रा	-8.32193
लेंग	-8.32298
▁निया	-8.32312
▁पण्ड	-8.32365
▁रमेश	-8.32369
ेक	-8.32411
▁कल	-8.32652
▁जनुम	-8.32751
’	-8.328
▁मू	-8.33071
▁मं	-8.33107
ष	-8.33311
▁कार	-8.33315
कोम	-8.33406
▁तिहार	-8.33501
▁टे	-8.33546
▁जिनिस	-8.33728
▁पोड़द	-8.34002
▁अलगे	-8.34171
▁दरम	-8.34267
▁मासोर	-8.34375
म्	-8.34579
ंट	-8.34611
▁कियायता	-8.35066
वि	-8.35144
▁बर्रस	-8.35201
▁पेर्रेक	-8.35383
▁गा	-8.35386
▁आजादी	-8.35567
▁लोरकुन	-8.35632
▁लोह	-8.35882
▁केय	-8.36166
▁बाना	-8.36188
▁क्षेत्र	-8.3622
▁मह	-8.36285
▁पुट्ट	-8.36309
▁जब	-8.36322
▁मायला	-8.36439
▁वायता	-8.3646
वी	-8.3664
रू	-8.36885
▁हजार	-8.37075
▁मल	-8.37324
▁मया	-8.3742
▁निम्मट	-8.37918
▁दिय्या	-8.3793
▁करोड़	-8.37933
▁मंतोर	-8.37942
▁नाटे	-8.38051
िने	-8.38069
▁मतोन	-8.38132
▁कोटले	-8.38429
▁इन	-8.38552
▁कीन्द	-8.39093
▁आयोन	-8.39317
र्क	-8.39576
मान	-8.39598
▁गुन	-8.39627
▁कला	-8.39654
▁मंदाना	-8.39791
ायतंग	-8.39793
▁जिल्गी	-8.39935
▁रोम	-8.4003
▁पड़योरलोर	-8.40238
▁मिया	-8.40359
ानुंग	-8.40712
त्	-8.40908
▁गोतियालोरिट	-8.41113
ेल	-8.41333
▁टवकय	-8.41697
▁संविधान	-8.41994
▁इचो	-8.42003
▁सत	-8.42438
▁नीति	-8.42489
▁ओय	-8.42537
▁इंद	-8.42672
ल्ला	-8.42744
▁कमय	-8.43129
▁पाल	-8.43237
नि	-8.43277
▁पाटंग	-8.43435
▁हिस्सा	-8.43492
▁मदेत	-8.43501
▁बिनती	-8.4353
▁कीतोर	-8.43605
डी	-8.43646
▁सर	-8.43662
d	-8.44096
▁मन्तोर	-8.44152
▁‘‘	-8.44695
्द	-8.44756
ुंग	-8.44926
▁आद	-8.44942
ोह	-8.45012
▁अधिकारी	-8.45102
▁कुटुम	-8.4512
▁जिला	-8.45297
▁देस	-8.45439
▁सभा	-8.45486
▁सगा	-8.45542
▁लड़ेय	-8.46229
तह	-8.46328
▁मर	-8.46457
▁आक	-8.4656
▁जोड़े	-8.46842
▁सब	-8.46958
▁मतंग	-8.47172
▁अट	-8.47176
▁गुड	-8.473
▁कमाय	-8.47301
▁गांधी	-8.47492
▁दुनिया	-8.47539
▁सौ	-8.47592
▁मी	-8.47632
ृ	-8.47901
▁वात	-8.47926
न्ड	-8.4806
m	-8.48077
▁मुयताह	-8.48134
▁पेड	-8.48296
बानी	-8.48392
▁कट	-8.48465
▁पन्ड	-8.48554
▁ध	-8.48707
▁बर	-8.48792
▁झ	-8.48941
गो	-8.49184
▁भी	-8.49261
▁बाहिर	-8.49715
▁पाग	-8.49986
जे	-8.50315
▁दरती	-8.50395
▁मायले	-8.50511
▁येर	-8.50607
▁कबीर	-8.50696
▁बेरस	-8.50791
ाह	-8.50876
▁जानकारी	-8.51009
▁एव	-8.51013
ेट	-8.51123
ीट	-8.51149
▁बै	-8.51216
ांग	-8.51222
▁मार	-8.51408
▁जिंल्‍गी	-8.51659
▁कुन्दा	-8.51668
न्‍द	-8.51736
▁मर्र	-8.51744
▁पिस	-8.5177
िह्च	-8.51953
▁अकल	-8.52045
ोत	-8.52046
्ड	-8.52137
▁सरकारी	-8.52304
हक	-8.52518
▁पीटो	-8.52528
▁सोर	-8.52541
▁‘	-8.52898
▁सपो	-8.53005
द्ध	-8.53128
▁मंज	-8.5328
▁असर	-8.53287
▁पूजा	-8.53425
▁सेका	-8.53606
डह	-8.53796
▁कतांग	-8.54208
▁जल	-8.54537
हार	-8.54619
च्च	-8.54645
ह्वान	-8.54668
▁जात	-8.54674
▁अड़चेन	-8.54704
▁या	-8.54706
द्द	-8.54777
▁दि	-8.54802
मु	-8.55009
▁हूड़	-8.55114
से	-8.55313
▁पिर्रदा	-8.55324
▁आतेक	-8.55397
▁पार	-8.55499
यो	-8.5561
गे	-8.55618
▁मुल	-8.55671
टो	-8.55765
▁हुड़	-8.55955
▁हंजोर	-8.56108
▁पीलांग	-8.5625
▁केवोन	-8.56336
▁वेडा	-8.56344
▁मूंड	-8.56431
कल	-8.5667
▁जिनगी	-8.57384
ओ	-8.57559
▁अदे	-8.57614
तोन	-8.57624
▁पढ़े	-8.57629
▁हुड	-8.57635
▁इद्द	-8.57676
▁आयि	-8.57729
▁रूजुम	-8.57732
वन	-8.57769
ून	-8.57948
भा	-8.58026
▁पंचायत	-8.5808
▁आन	-8.58279
गु	-8.58301
रंग	-8.58974
स्ट	-8.59111
▁पूनंग	-8.59188
▁बद	-8.59277
ह्क	-8.59352
पू	-8.59545
▁सेती	-8.59734
ूल	-8.59918
▁समय	-8.59964
▁मेटे	-8.60287
▁कव	-8.60355
▁जरूर	-8.60374
▁पंडले	-8.60506
▁मायतंग	-8.60693
▁पीटोंग	-8.60712
ह्	-8.60759
▁पड़ाना	-8.60907
▁डिजिटल	-8.60912
▁तियार	-8.61076
स्	-8.61323
▁कर्रिह	-8.61414
▁मंदले	-8.61515
▁पढ़हे	-8.61643
▁करिय	-8.61661
▁पंड्स	-8.61768
▁आर	-8.61772
▁बनेह	-8.618
तुंग	-8.61825
ीत	-8.62073
▁जोहार	-8.62073
▁हाल	-8.62137
▁अन्न	-8.62378
▁चुकले	-8.62468
▁कुबे	-8.62525
▁योग	-8.62587
कून	-8.62684
ैय	-8.62938
▁शुरू	-8.63099
▁मानेयक	-8.63477
▁आतुर	-8.63484
▁बेस्केय	-8.63575
ाव	-8.63658
▁आपुनंग	-8.63729
▁किययतोना	-8.64134
टर	-8.64243
▁दियान	-8.64354
िम	-8.64402
▁हिययता	-8.64426
▁उचुक	-8.64569
्ले	-8.64793
▁डो	-8.64907
▁ठ	-8.64932
▁समुंद	-8.64942
▁दोह	-8.64948
▁चा	-8.64982
ोय	-8.65097
▁स्व	-8.65247
▁मोला	-8.65502
कु	-8.65648
▁वैज्ञानिक	-8.65692
▁बिजली	-8.65697
▁राका	-8.65723
कले	-8.6606
▁हन	-8.66075
▁दायता	-8.66092
▁पै	-8.66175
अलग	-8.66315
▁कियन्न	-8.66323
▁लगेह	-8.66528
▁हव	-8.66685
▁विधान	-8.6684
्प	-8.67044
▁वाट	-8.67093
र्स	-8.67145
ुग	-8.67223
▁जीक	-8.67232
▁सतेय	-8.67261
पु	-8.67319
▁मत	-8.6735
▁हीले	-8.67435
▁अभियान	-8.67599
l	-8.67815
▁आयतोर	-8.67826
▁वास	-8.67985
▁पंडना	-8.68446
ट्	-8.68451
▁रीत	-8.68452
चार	-8.68728
▁मुड़	-8.68777
न्न	-8.68796
▁आकर	-8.68799
▁रू	-8.68845
नुर	-8.69108
▁लेवा	-8.69155
▁हुडिला	-8.69158
▁इच्चो	-8.69318
▁बिनकर	-8.69559
▁टी	-8.69671
ुक	-8.69741
▁समुन्द	-8.69924
▁मतोरोम	-8.69975
▁अचोय	-8.70132
तो	-8.70139
c	-8.70194
रण	-8.70329
▁जरिया	-8.7036
▁साहित्य	-8.70374
▁मंदन	-8.70389
▁नेंग	-8.70455
क्स	-8.70597
▁बदे	-8.70601
ंच	-8.70725
▁किसोर	-8.70784
▁कोयतोर	-8.70786
▁होपे	-8.70793
▁नर्रकीय	-8.70918
▁महा	-8.70979
▁नेता	-8.71049
▁रि	-8.71461
▁लोता	-8.71478
▁जरवत	-8.71513
▁पर्रो	-8.7157
संग	-8.7168
▁वेस	-8.71759
▁मूल	-8.72094
▁इर	-8.72139
▁दम	-8.72217
ाड़	-8.72303
▁मुन्‍ने	-8.7231
▁मट्टा	-8.72371
▁पट	-8.72481
▁अप	-8.72686
▁मजगूत	-8.72713
▁नालुंग	-8.72716
▁तयहा	-8.72733
▁इत्तुर	-8.72795
शा	-8.72841
▁जमा	-8.73081
▁इर्राना	-8.73295
▁कियान	-8.7335
▁जीवोत	-8.73543
▁संस्कृति	-8.73648
▁बह	-8.73836
▁पड	-8.73874
▁तीस	-8.73904
ढ़	-8.73939
▁अपुन	-8.74006
▁केल	-8.7406
्ग	-8.74093
▁निह	-8.74196
▁हीत	-8.74212
▁लोप्पा	-8.74712
▁लेह्का	-8.74762
▁हन्द	-8.74876
त्ता	-8.75013
लैयोर	-8.75295
ास	-8.7532
▁लोह्क	-8.75402
▁हार	-8.75434
▁पिट्टेंग	-8.75503
▁सबोय	-8.75592
▁दुकान	-8.75654
▁गाडा	-8.76068
▁वड़का	-8.76195
▁गोत	-8.76255
▁कर्रियना	-8.76354
रिंग	-8.76356
▁कोट्ट	-8.76517
रि	-8.76538
कना	-8.76613
▁कीन्दुर	-8.76682
p	-8.76811
▁पोस	-8.76841
▁वलिय	-8.76863
▁चाहे	-8.76875
दूर	-8.76876
▁पुटयता	-8.76877
ह्च	-8.76999
ढ	-8.77086
▁दवा	-8.77146
▁घ	-8.7718
▁हिले	-8.7719
y	-8.77257
▁बाल	-8.77506
▁बेड़स	-8.77665
िता	-8.77744
▁वेल्ला	-8.77758
▁आले	-8.77802
▁कियान्तोर	-8.77896
ान्ता	-8.77982
▁शा	-8.77996
▁रेलगाडी	-8.78108
▁किययतंग	-8.78252
्रा	-8.78307
▁इंडिया	-8.78536
▁राजनीति	-8.78719
▁हू	-8.788
गी	-8.78826
▁दिल्ली	-8.7898
▁लगवार	-8.78994
्ता	-8.79166
▁बाबो	-8.79308
▁केन्द्र	-8.79417
▁पुरका	-8.79548
चे	-8.79591
चोर	-8.7973
बी	-8.79966
▁कियाय	-8.80025
▁बसकेय	-8.80168
▁कैय	-8.80209
▁पोदेला	-8.80264
यतोरोम	-8.80278
▁आयनुर	-8.80312
▁समजे	-8.80326
▁कै	-8.804
▁बातल	-8.80553
प्प	-8.80656
▁पड़	-8.80695
▁मोटोर	-8.8071
▁तिर	-8.80866
श्	-8.80872
▁अरजी	-8.80933
▁पहली	-8.80986
▁दो	-8.8103
n	-8.81058
▁मन्दुर	-8.81079
▁कोली	-8.81082
▁हीस	-8.81085
▁चुनाव	-8.81141
▁दीया	-8.81171
▁मद	-8.8124
▁मिय	-8.81457
ंडा	-8.81551
▁बू	-8.81565
▁वेहतुर	-8.81567
▁उचुन	-8.8158
▁अहनेक	-8.81598
▁पुलिस	-8.81604
▁आपिस	-8.81611
ीनुंग	-8.81619
़	-8.81688
र्ज	-8.81885
▁कितुर	-8.82026
▁पेकोर	-8.82026
‘‘	-8.82047
’’	-8.82083
िं	-8.82207
▁मारिह	-8.82312
▁केवालोरा	-8.82374
यन्‍ना	-8.82539
▁बूमकाल	-8.82542
▁पिट्टे	-8.82551
वय	-8.82561
िका	-8.8264
काल	-8.82863
▁बिना	-8.82903
▁आवरेह	-8.82913
▁सामिल	-8.82914
ंन	-8.82943
▁कीम्ट	-8.82956
▁सेना	-8.83136
▁कियला	-8.83184
▁आन्‍दन	-8.83405
▁याया	-8.83759
▁पोत	-8.8388
▁बुद	-8.84391
▁एस	-8.84415
िला	-8.84529
ोल	-8.84706
▁जुड़े	-8.84734
रिवाज	-8.84735
लह	-8.84741
▁नेक	-8.84985
लय	-8.85062
▁रोजे	-8.85142
▁उमेर	-8.85179
▁वी	-8.85194
▁केविर	-8.85205
▁शहेर	-8.85207
न्त	-8.85271
ुट	-8.85458
▁किला	-8.85518
तोम	-8.85552
▁हिल्ले	-8.8567
याना	-8.85723
बु	-8.85776
▁मेटा	-8.85799
हायता	-8.85855
नोर	-8.85855
▁पीलाना	-8.85886
▁एन	-8.85921
▁पोंग	-8.85969
▁रायपुर	-8.86116
▁ओड़	-8.86284
▁हंज	-8.86516
त्र	-8.8661
▁लोक	-8.86622
g	-8.87012
▁जीव	-8.87176
▁मंदका	-8.87293
▁ललेंज	-8.87491
▁नाम	-8.87537
▁सू	-8.87627
al	-8.87858
▁नित	-8.87879
ानता	-8.88147
ियल	-8.8827
▁डह	-8.88306
▁बाकिया	-8.88435
▁नियम	-8.88579
बर	-8.88722
▁रोज	-8.88752
▁नोर	-8.89179
▁ऐत	-8.89286
▁मंदाकोम	-8.89383
▁महत्व	-8.89392
▁वर	-8.89427
▁राट्रीय	-8.89434
िहला	-8.89515
माय	-8.89644
▁स्वास्थ्य	-8.8986
▁नोर्र	-8.89919
▁यायाल	-8.89939
▁निय	-8.90066
▁पुटायता	-8.90089
▁''	-8.90174
ुह	-8.90221
▁रेक	-8.90287
▁पुंगह	-8.90395
▁लाड	-8.905
वाय	-8.90645
▁कीतन	-8.90705
▁गूड	-8.90927
▁दायतोर	-8.90983
रिय	-8.91026
▁संगने	-8.91061
र्म	-8.91308
▁साद	-8.91357
▁वित्त	-8.9139
▁पाटांग	-8.91405
▁कर्रसना	-8.91437
स्त	-8.91441
▁सपना	-8.91475
▁जग	-8.91494
हयतोर	-8.91534
▁मिलेमास	-8.91671
▁निरकुल	-8.91805
▁इदामे	-8.92093
▁अर्जी	-8.92289
▁कलिय	-8.92375
▁बचो	-8.92728
▁भारेत	-8.9278
▁जोड़े	-8.92788
▁पैय	-8.93167
▁जागी	-8.9321
ीग	-8.9323
▁धन	-8.93297
ंह	-8.93312
▁कियानुर	-8.93536
न्तोना	-8.93806
▁वोर	-8.93851
वाद	-8.93867
▁किले	-8.93943
▁फेर	-8.93977
▁कता	-8.94141
मो	-8.94164
▁पंडला	-8.94306
्ला	-8.94347
▁नूंग	-8.94742
म्ब	-8.94757
▁नामजागी	-8.94775
▁जरवोत	-8.94775
▁रूपयांग	-8.9482
लंग	-8.94827
▁कप	-8.95003
▁पेरे	-8.95063
तु	-8.95194
मायना	-8.95213
▁गरीब	-8.95289
▁हेल	-8.95542
▁अड़चेन	-8.95788
▁लैइंग	-8.95791
लिंग	-8.95798
▁खेल	-8.9585
▁पंडतुर	-8.95911
▁बिडारिंग	-8.95927
▁बंद	-8.95975
▁दाय	-8.96072
▁आनता	-8.96134
▁चहा	-8.96142
▁मै	-8.96153
▁समझे	-8.96155
▁मरमिंग	-8.963
▁चापा	-8.9636
▁बस्केय	-8.96598
दू	-8.9661
▁तोहना	-8.97045
ियर	-8.97097
दार	-8.97175
▁मंजाल	-8.9729
▁जिल्ंगी	-8.97326
ंता	-8.97447
▁जतुन	-8.97571
▁कियय	-8.97691
▁रक्षा	-8.97845
न्‍ता	-8.97847
▁तड़ाय	-8.9785
▁दु	-8.98024
तर	-8.98195
▁कून	-8.98198
त्क	-8.98339
▁कीता	-8.98344
▁उद्योग	-8.98365
▁लाख	-8.98488
कुल	-8.9861
▁रोज्ज	-8.98719
▁हनवालोर	-8.98808
▁स्वतंत्रता	-8.98888
▁कू	-8.989
▁ओरकुन	-8.98936
घ	-8.99021
▁प्रति	-8.99078
▁बोदे	-8.99156
्ल	-8.99296
▁इस	-8.99676
▁वायर	-8.99895
▁कूबेय	-8.99992
▁मायर	-9.00039
▁कर्स	-9.00246
▁ऑ	-9.00304
▁बिती	-9.00355
▁परिवार	-9.005
▁बिति	-9.00836
▁स्	-9.00888
▁कन	-9.00932
▁कोड़	-9.00949
▁अड़	-9.01019
▁पसिय	-9.01482
▁श्री	-9.01523
्ति	-9.01599
▁पोसे	-9.01655
त्‍	-9.0185
दान	-9.02084
▁आनदन	-9.02092
▁कद	-9.02143
▁दूसोर	-9.02205
▁दुन	-9.02236
▁असेर	-9.02267
छ	-9.0231
▁मम	-9.02322
न्ज	-9.02391
शन	-9.02522
▁ओस	-9.02587
▁साहेब	-9.02633
▁सोबय	-9.02639
▁कबिर	-9.02654
▁अमृत	-9.02769
▁बार	-9.02775
▁तेयहा	-9.0279
▁सुदा	-9.02797
झ	-9.02818
▁जेल	-9.0289
▁जनता	-9.02963
▁तिन्दाना	-9.02984
हेरे	-9.03046
▁सही	-9.03142
▁इं	-9.03191
पति	-9.0324
मि	-9.03347
▁वल्ला	-9.0338
▁तोना	-9.03495
ंदी	-9.03553
▁पुटले	-9.03561
▁डाका	-9.03657
▁अं	-9.04029
▁रोज्जे	-9.04114
किंग	-9.04129
▁माल	-9.04161
न्क	-9.04242
▁पड़ेह	-9.04295
▁पल्ला	-9.04506
▁केती	-9.04652
दु	-9.04659
▁पुट्त	-9.04724
▁थ	-9.0486
▁सेवामान	-9.05072
▁S	-9.05165
▁पस	-9.05173
▁डी	-9.05261
▁वेगरोह	-9.0537
▁छत्तीसगढ़	-9.05395
▁बद्दे	-9.05396
▁इपेडे	-9.05412
▁बेह	-9.05439
▁केन्ज	-9.05462
▁बिन	-9.05531
▁सिंह	-9.05635
नीति	-9.05722
डिय	-9.05783
्च	-9.05847
an	-9.05861
▁नाड़	-9.05934
त्तुर	-9.06016
ात	-9.06085
▁जाति	-9.06112
▁दुक	-9.06122
▁बितोर	-9.06149
यर	-9.06262
▁जय	-9.06389
▁सप	-9.06406
▁दूसरा	-9.06477
▁मनतंग	-9.06808
स्‍त	-9.07056
▁’’	-9.07081
▁नौकरी	-9.0709
▁पोटो	-9.07178
▁मंदोम	-9.0722
▁चु	-9.07235
▁मिड़	-9.07329
▁दल	-9.0736
डिंग	-9.07365
▁हीसोर	-9.07601
▁मक	-9.0761
▁लग	-9.07625
▁दुल्हा	-9.07652
▁इतिहास	-9.07661
▁गुरजी	-9.07663
मास	-9.07665
▁लह	-9.07781
▁ऐर्र	-9.07964
▁किलाप	-9.0799
▁आप	-9.08188
it	-9.08216
▁आनी	-9.0822
▁बेसता	-9.08247
मत	-9.0828
बल	-9.08311
▁नार	-9.08463
▁वेहच	-9.08464
ल्‍ला	-9.0852
▁केवाल	-9.0852
▁नेड	-9.08539
बाग	-9.08854
बि	-9.0887
प्पा	-9.08906
▁G	-9.08948
्का	-9.09067
हले	-9.09068
▁कस	-9.091
▁मीन	-9.09175
▁जे	-9.09224
▁आँद	-9.09252
न्‍न	-9.0938
ज्ञ	-9.09394
▁रोजय	-9.09617
▁पेस	-9.09776
खा	-9.09778
▁अधिकार	-9.09819
▁हियायता	-9.09856
▁व्यापार	-9.0998
▁तैयहा	-9.09981
▁डोंगा	-9.09992
ग्गा	-9.09994
▁प्रबंध	-9.10006
h	-9.10074
▁इदमे	-9.10106
▁आयला	-9.10111
▁भा	-9.1053
▁शामिल	-9.10569
▁उत्तर	-9.10596
▁केर्र	-9.10661
▁आंदूर	-9.10769
▁कमेक	-9.10771
▁पय	-9.1081
▁सोचे	-9.10859
ीने	-9.10904
▁वर्र	-9.10988
▁क्रिकेट	-9.1116
ियन	-9.11222
▁लाट	-9.11259
▁आम	-9.11284
▁कोय	-9.11302
▁रोके	-9.11361
ेश	-9.11398
▁मायो	-9.11416
▁तर्र	-9.11515
es	-9.11548
वोर	-9.11631
▁एक्‍सप्रेस	-9.11755
▁सदस्य	-9.11755
▁य	-9.11764
▁नीकुन	-9.11794
▁मानैय	-9.11913
▁सुन	-9.12125
स्ता	-9.12134
ड़क	-9.12139
▁अवेहना	-9.12218
▁कई	-9.12265
▁तिहारी	-9.12321
▁कीयि	-9.12345
ये	-9.12451
▁पर्रोर	-9.12453
▁अडिय	-9.12488
यतोन	-9.12505
▁पोल्लोंग	-9.1256
ंर	-9.12583
▁तप	-9.12881
▁विश्व	-9.12938
▁परियोजना	-9.12957
▁कांग्रेस	-9.12957
▁एन्द	-9.13071
यान	-9.13088
▁नर्रका	-9.13136
▁मिशन	-9.13608
▁हंद	-9.13661
टिंग	-9.1378
▁पं	-9.13932
हायतोर	-9.14047
▁धरती	-9.14173
नाथ	-9.14253
▁सपाय	-9.14327
▁सप्पोय	-9.14343
▁नाक	-9.14353
ानतोर	-9.14411
▁मातंग	-9.14415
▁मंदानुंग	-9.14457
▁पास	-9.14565
देश	-9.14701
▁आदिवासी	-9.14786
▁तैयार	-9.14788
पो	-9.14866
ोंग	-9.15309
▁सिरतोम	-9.15414
▁अपेडे	-9.15416
▁स्तर	-9.15446
▁गिरदा	-9.1548
ानी	-9.15494
▁हिन्दी	-9.15495
▁जीवन	-9.15507
▁कोर	-9.1557
▁इन्तोर	-9.15603
रेह	-9.1562
नूंग	-9.15687
▁नेलिंग	-9.15928
▁मर्रक	-9.15995
▁बगवान	-9.16025
▁टप्पि	-9.16033
▁मौसम	-9.16033
▁लाल	-9.16081
▁अग्गा	-9.16116
डि़	-9.16216
सम	-9.16563
▁मर्रका	-9.16842
▁इदेनका	-9.16866
▁मंदेर	-9.16875
▁परेक	-9.16896
्यू	-9.17049
वेहट	-9.17054
▁ओयना	-9.17074
▁वेहना	-9.17176
▁आयले	-9.17228
▁कूबे	-9.17265
▁यायल	-9.17292
▁वातुर	-9.17308
▁तमोह	-9.17314
ोड़	-9.17405
▁मीकुन	-9.1747
ौर	-9.17509
▁इदाना	-9.17541
ययता	-9.17598
▁मिटास	-9.17927
▁विचार	-9.18005
▁कतंग	-9.18331
▁नगर	-9.18456
नूर	-9.18596
▁काया	-9.18687
ेत	-9.18714
ट्टा	-9.18765
▁केवोर	-9.19075
न्‍ड	-9.19138
▁तक	-9.19139
▁आसिद	-9.19195
▁मंदाका	-9.19208
▁पूचे	-9.19243
▁कियातोर	-9.19246
▁निवाय	-9.19299
▁बट	-9.19464
▁करस	-9.19581
▁किसन	-9.19629
f	-9.19834
▁मजगुत	-9.19834
▁कोरोना	-9.19838
▁मंजा	-9.19862
▁कोर्र	-9.20118
▁मेल	-9.20165
▁दर	-9.20412
▁कियायतंग	-9.20425
▁केव	-9.2045
ॅ	-9.20483
▁मानेय्क	-9.20534
्‍क	-9.20918
▁ब्र	-9.21003
▁कियका	-9.21049
▁राय	-9.21097
▁सिलिमा	-9.21137
▁स्वामी	-9.21138
▁उद्स	-9.21144
in	-9.21176
▁टा	-9.2118
बो	-9.21211
▁नर्र	-9.21269
▁लोहक	-9.21359
केडह	-9.21378
▁मायतोना	-9.21649
▁दुल्ही	-9.21654
▁सामाजिक	-9.21795
▁निन्ने	-9.21797
▁आदुर	-9.21826
▁बड़हे	-9.21831
▁कं	-9.21887
▁हीय	-9.21901
▁राजा	-9.2204
▁हत	-9.22068
▁वेह्च	-9.22155
▁ओह	-9.22329
▁विताना	-9.2234
▁मुरहेन	-9.22458
▁हिसाब	-9.22537
▁पोय	-9.22839
▁गति	-9.22865
▁में	-9.22902
▁रंड	-9.23006
प्र	-9.23087
▁महात्मा	-9.23124
▁विषय	-9.23126
▁चिट्टी	-9.23145
▁टाली	-9.23193
▁मातोर	-9.2325
▁मंत्री	-9.23683
मात	-9.23756
▁पाकिस्तान	-9.23795
▁सुदरे	-9.23808
▁पर्रिय	-9.23817
▁आमात	-9.23952
▁ट्र	-9.24018
▁पुन्दले	-9.24039
▁टीम	-9.24045
▁अपने	-9.24124
▁संस्था	-9.24142
कीस	-9.24142
▁पीन	-9.24198
▁आतंग	-9.24365
गं	-9.24396
▁अंग्रेज	-9.24471
▁संख्या	-9.24472
▁सांडे	-9.2449
▁मीलेमास	-9.24537
▁कोटुह	-9.24566
▁आयनुंग	-9.24869
▁वेहले	-9.24903
च्‍च	-9.25105
▁हित	-9.25118
▁जिंदगी	-9.25151
▁वंदे	-9.25157
▁मंडेय	-9.25177
▁मंदी	-9.253
वालोरा	-9.25352
▁तूस	-9.25393
ँ	-9.25451
▁पंडुम	-9.25553
ोड	-9.25648
दुंग	-9.25719
▁मामला	-9.2585
▁बेर्रस	-9.25887
▁मन्‍द	-9.26053
लोरा	-9.26149
पर	-9.2619
डेक	-9.2621
▁प्रा	-9.26237
स्थ	-9.26291
▁कोड	-9.26427
ांता	-9.26523
▁मेंदुल	-9.26526
▁इंगो	-9.26588
▁टो	-9.26596
▁मौका	-9.26655
▁रोजाय	-9.26729
▁अग	-9.26871
र्रा	-9.26903
▁तुस	-9.26912
▁हूड	-9.26978
▁उपजेह	-9.27048
▁स्प	-9.27072
▁पड़क	-9.27106
▁माध्यम	-9.2722
▁पल	-9.27278
▁नेण्ड	-9.27392
▁हाले	-9.27546
▁मालेंग	-9.27702
▁हिययतोर	-9.27709
▁गुजरात	-9.27919
▁तोडि़य	-9.27921
▁बच्चो	-9.27926
▁टड्डी	-9.27934
▁बस	-9.2812
▁बिल	-9.28189
▁है	-9.28237
▁मंदुंग	-9.28254
▁एति	-9.28322
▁सोबा	-9.28411
b	-9.28624
▁प्रभाव	-9.28624
▁कानून	-9.28625
▁जांच	-9.28684
▁जोरदार	-9.28696
▁गुरू	-9.28712
▁अवसनिंग	-9.28727
्थ	-9.28774
▁उंदीय	-9.28844
वास	-9.28892
कोट	-9.29001
▁बोचो	-9.29126
▁बग	-9.29219
▁कुट	-9.29314
▁उच्चुय	-9.29334
▁लि	-9.29358
▁’	-9.29447
▁मन्दानुर	-9.29487
▁उच्च	-9.29533
न्ह	-9.29623
▁जबाब	-9.29716
▁कियन	-9.29734
▁दुसर	-9.29764
▁पुरू	-9.29963
 	-9.30047
▁राष्ट्र	-9.30047
िहच	-9.30053
▁भाषा	-9.3006
▁रेलगाड़ी	-9.30075
▁बदाम	-9.30124
ेस	-9.30206
▁कियर	-9.30238
ंना	-9.30239
▁मोम	-9.30263
▁कीयना	-9.30295
ंदा	-9.30362
▁बिचारिंग	-9.30443
▁कीलेंग	-9.30551
▁हालेत	-9.30605
▁अगाड	-9.30708
▁मां	-9.30742
▁हुडला	-9.30779
▁तकनीक	-9.30823
षा	-9.3085
▁गिर	-9.3108
▁लड़ेय	-9.311
▁बड़	-9.31123
▁बजे	-9.31211
▁चुमुक	-9.31247
िहतुर	-9.3127
▁सहे	-9.31305
काना	-9.3141
▁लक	-9.31419
▁अट्ट	-9.31467
▁कोट्	-9.31513
▁आड़	-9.31558
▁इदाम	-9.31574
▁हिन्द	-9.31579
er	-9.31591
▁पंडसोर	-9.31655
याल	-9.32024
▁मांद	-9.32188
▁डाक्टेर	-9.32221
▁रव	-9.32243
ूग	-9.32337
▁गटन	-9.32385
म्‍म	-9.32687
‍	-9.32692
▁ये	-9.32876
▁खेती	-9.32958
▁केमेक	-9.32959
▁जबान	-9.33018
▁हायना	-9.33021
▁यू	-9.33101
▁ओड़	-9.33197
▁संस्थान	-9.33318
्‍य	-9.33602
्दी	-9.33615
▁सुरक्षा	-9.33697
▁आकिंग	-9.33702
▁अविह	-9.33763
▁रूपया	-9.33769
दि	-9.33852
▁आच	-9.3386
▁अल	-9.34014
▁जिम	-9.34204
ालय	-9.34254
▁एद	-9.34289
राज	-9.34307
ऊ	-9.34325
▁पोड़्द	-9.34444
▁पार्टी	-9.34445
▁जानवोर	-9.34453
▁वन	-9.34488
▁खास	-9.3452
▁रन्ड	-9.3463
▁पुंदले	-9.3464
▁निबे	-9.34715
▁कीन्तोर	-9.34766
▁जोड़	-9.3489
मट	-9.3489
▁इत	-9.34913
▁कियाका	-9.3492
▁मिलेह	-9.34939
▁मत्तोना	-9.35046
ज्ज	-9.35119
▁श्याम	-9.35196
▁बैटका	-9.35197
▁सोबले	-9.35199
▁लोप्‍पा	-9.35203
बू	-9.35299
▁उदाना	-9.35465
▁C	-9.3547
पद	-9.3565
▁बन	-9.35879
▁चीज	-9.35905
लगाड़ी	-9.35925
▁कार्यक्रम	-9.35955
▁भूमिका	-9.35964
▁विश्वास	-9.36101
▁मीन्क	-9.3615
▁प्रदेश	-9.3627
▁पण्‍ड	-9.36357
▁एक	-9.3637
▁वासोर	-9.36538
▁लेव	-9.36567
्रो	-9.3659
▁होंग	-9.36706
▁कचित	-9.36718
▁डि	-9.36728
▁बितल	-9.36741
्ज	-9.36838
▁कत्ता	-9.3694
▁कीम	-9.36989
▁फा	-9.37065
मुल	-9.37327
▁परके	-9.37385
!	-9.37486
दुन	-9.37489
▁मोबाइल	-9.375
▁वेड़	-9.37517
्ने	-9.37527
क्‍क	-9.37556
▁बाबल	-9.37708
▁पाठ	-9.37712
▁बांग	-9.37732
▁वेल्लय	-9.37739
▁इट	-9.37768
▁सादा	-9.37887
▁काजेर	-9.3801
▁लेह	-9.38039
▁होड़	-9.38098
र्व	-9.38153
▁कीतेक	-9.38158
re	-9.38222
▁बेहा	-9.38242
▁आपुने	-9.38277
▁कय	-9.38302
▁मुर	-9.38304
▁शिव	-9.38315
▁आँदन	-9.38455
▁मेलय	-9.38475
▁इन्द	-9.38486
▁कश्मीर	-9.38523
▁चहे	-9.38541
▁मापी	-9.38542
▁गलती	-9.386
▁वेरलोर	-9.38632
▁पुल	-9.38752
▁मोह	-9.38812
▁हैय	-9.38859
▁अर्र	-9.38923
▁इर्रना	-9.38998
▁क्	-9.39098
▁विदेश	-9.39112
▁आयका	-9.39192
▁लोपा	-9.392
▁गू	-9.39221
था	-9.39239
▁जीवांग	-9.39373
▁डॉ	-9.39432
▁उमर	-9.39434
▁हवक	-9.39446
▁आत्म	-9.3947
▁रानी	-9.39605
▁नग	-9.39735
▁चापंग	-9.39834
▁नांगेल	-9.39841
▁एंद	-9.39863
▁कुसीर	-9.39884
ड़े	-9.40049
▁हाय	-9.40082
▁मानेह	-9.40351
दारी	-9.40386
▁निकुन	-9.40435
▁पर्रके	-9.40477
्चोर	-9.40558
▁रन	-9.40595
▁पर्यावरण	-9.40623
▁गोहोड	-9.40626
▁जिल्‍गी	-9.40627
▁सहेर	-9.4084
▁उन्दीय	-9.40856
दुर	-9.40997
ल्ले	-9.41014
▁शो	-9.41056
्‍स	-9.41098
▁सरल	-9.41276
▁मुल्पे	-9.41424
▁ध्यान	-9.41424
▁परचो	-9.41428
▁हिर्र	-9.4143
▁पुर्रू	-9.41441
▁पैसंग	-9.41466
▁आं	-9.41477
or	-9.4171
▁पर्रतोरट	-9.4188
▁केवा	-9.41916
▁राजनीतिक	-9.41974
▁सुतुर	-9.41987
ंत्र	-9.4208
▁वेहह	-9.4211
▁सैय	-9.42141
▁कूबैय	-9.42229
▁कोशित	-9.4223
▁अपील	-9.42239
▁मास्टर	-9.42241
▁उपाय	-9.42483
▁पूनांग	-9.42494
▁पर्री	-9.42588
▁तिन	-9.42626
ुर्र	-9.42647
▁रचना	-9.42698
▁लोतोर	-9.42717
्यता	-9.42729
▁निंद	-9.42833
्मे	-9.42851
▁बल	-9.42934
वत	-9.4295
▁जर	-9.43162
▁बिहार	-9.43251
▁दन	-9.43274
▁वेल्ले	-9.43489
▁लड़े	-9.43503
▁वीत	-9.4378
▁कर्रस्	-9.4383
ब्ब	-9.43863
▁सम्मान	-9.43864
▁इजेक	-9.43865
▁तुमीर	-9.43893
▁बीडर	-9.43894
▁पुनांग	-9.44025
पूर्ण	-9.44087
▁मायी	-9.44238
▁नत्ता	-9.44242
▁बिडार	-9.44477
▁बासा	-9.44564
▁छत्तीसगढ़	-9.44689
▁डॉक्टेर	-9.44689
▁आंदोलन	-9.44693
▁संगठन	-9.44706
▁बोस	-9.44714
▁अक	-9.44831
▁मंड	-9.44848
▁दूका	-9.44905
▁डिस	-9.44968
▁हूड़सोर	-9.4499
▁बरसिहला	-9.45018
▁लाग	-9.45131
▁तिन्द	-9.45142
जोर	-9.45301
▁वो	-9.45363
▁कोटाना	-9.45393
▁मानेमाय	-9.45496
ुत	-9.45606
राम	-9.45662
▁दू	-9.4578
▁परि	-9.45896
▁हालेति	-9.45933
▁हीसा	-9.46167
▁मिल	-9.46192
▁हल	-9.46213
▁उंड	-9.46221
▁आर्थिक	-9.46362
▁जनजाति	-9.46364
ंड़	-9.46398
▁लागू	-9.46505
▁हाट	-9.46558
▁वरस	-9.46672
▁सै	-9.4674
▁s	-9.468
वो	-9.46804
▁सात	-9.46806
▁कीयायतोर	-9.46926
ंय	-9.46931
▁गोल	-9.47026
▁कुर	-9.47162
▁प्रतिशत	-9.4721
▁कक्षा	-9.47213
ढ़	-9.47239
▁ट्रेन	-9.47261
:-	-9.47412
▁केयो	-9.47631
▁माया	-9.47655
▁कुल	-9.47662
ेशन	-9.47713
गोक	-9.47777
▁हत्त	-9.47912
▁इदमना	-9.47958
▁रिकार्ड	-9.48064
▁परीक्षा	-9.48066
ूड़	-9.48135
▁पोरो	-9.48176
▁होकेर	-9.48193
▁इत्त	-9.48288
▁जाग	-9.48323
▁बेर	-9.48388
▁गल	-9.48463
▁कीमट	-9.48705
तोरिट	-9.48727
▁वाता	-9.4873
▁लोकतंत्र	-9.48927
▁मुयताड़	-9.48929
▁बोनय	-9.48963
▁तोड़दे	-9.49001
▁वर्रे	-9.49065
देन	-9.49089
▁ग्र	-9.4924
ुड़	-9.49276
▁बेर्स	-9.49349
▁इंज	-9.49411
▁चौ	-9.49612
एस	-9.49753
▁कंपनी	-9.49796
▁निर्रकुल	-9.49796
▁संबंध	-9.49843
▁वेला	-9.49939
जल	-9.49976
▁पुन्‍द	-9.50019
ड़िंग	-9.50041
▁भाई	-9.50095
▁दुसोर	-9.50103
म्प	-9.5011
▁हुंज	-9.50155
लोन	-9.50161
न्दुंग	-9.50192
ल्‍ल	-9.50247
▁सल्ला	-9.50354
▁मुल्ल	-9.5046
▁तहे	-9.50516
▁केवो	-9.50534
▁पोन	-9.50562
▁रण्डो	-9.50568
▁राट्र	-9.50596
▁सोज	-9.50629
▁अच्छा	-9.50674
▁मिन्दे	-9.50677
▁आयवेक	-9.50738
▁सत्	-9.50742
▁बेरहोर	-9.50749
▁एवनह	-9.50858
▁अदेनका	-9.50862
▁मायहयता	-9.5087
▁पुन्दाना	-9.50875
▁कमी	-9.50936
▁पुरा	-9.51069
▁वर्रो	-9.51143
▁अड	-9.51218
▁टप	-9.51459
▁ओड	-9.51543
हेलाह	-9.51545
▁कानहून	-9.51558
▁यात्रा	-9.51559
▁होरकुल	-9.51559
▁लयोर	-9.51578
▁योगदान	-9.5159
इंग	-9.51887
▁इंतोर	-9.51927
▁कां	-9.51958
▁मन्देर	-9.51992
▁तोड़	-9.51995
▁सिर	-9.52137
▁बरहा	-9.5216
▁निर्	-9.52263
▁पुंद	-9.52327
▁हिता	-9.52343
▁वेल	-9.5239
▁c	-9.52414
▁अद्	-9.5245
▁नर्रकिय	-9.52453
▁पहजे	-9.52454
▁दिवस	-9.52454
ing	-9.5247
▁दिस	-9.52543
▁पुन्द	-9.52645
▁कोडा	-9.52778
▁बेल	-9.52785
▁पुटता	-9.52836
य्या	-9.53066
र्रे	-9.53089
▁मान्ता	-9.53193
न्‍तोना	-9.53291
▁अनुसार	-9.53352
▁गंजे	-9.53358
▁मावंग	-9.53375
▁बोद	-9.53446
▁करचा	-9.5348
▁दोस	-9.53503
▁कर्रसाना	-9.53576
▁डोर	-9.53819
▁टु	-9.53861
▁पंडी	-9.5394
वेगरोह	-9.5401
▁अवेह	-9.54032
कारी	-9.5404
▁कींद	-9.54118
▁मेंड	-9.54123
▁बुर्रकाल	-9.54261
▁पेकिह	-9.54265
▁इलाज	-9.5427
▁बेरंग	-9.54402
▁इंजोर	-9.54419
वारी	-9.54539
गुन	-9.54568
▁A	-9.54617
ट्टी	-9.54646
▁पुनह	-9.54679
▁हियायतोर	-9.54792
कीट	-9.54799
▁संगे	-9.54947
▁पिलांग	-9.5496
▁वायतोर	-9.55129
▁बेसे	-9.55309
▁बगा	-9.55311
▁मुड़	-9.55492
▁कियी	-9.55496
▁कड़	-9.55515
▁पिसिह	-9.55533
▁आंदुर	-9.55553
▁महना	-9.55573
▁मुख्य	-9.55636
▁वड़	-9.55644
▁मनतोर	-9.55821
▁वेलय	-9.55869
ज्‍ज	-9.55931
▁पता	-9.55969
ण्‍ड	-9.55972
▁निर	-9.56067
D	-9.56104
▁कारखाना	-9.56105
▁उन्	-9.56118
▁कियन्‍न	-9.56119
▁पर्रवोर	-9.56194
▁बैंक	-9.56214
▁बीडारिंग	-9.56218
▁हित्ता	-9.5624
▁वर्ग	-9.56246
▁तितेक	-9.56299
▁शहरी	-9.56383
▁मने	-9.56404
▁पैसा	-9.56421
▁रोग	-9.56438
▁नुग	-9.56541
▁कल्क	-9.56633
▁वड	-9.56696
▁स्क	-9.56709
▁तापना	-9.5674
नुग	-9.569
▁अवेन	-9.56977
▁पुरक	-9.56981
▁हात	-9.56988
▁अस्पताल	-9.57039
▁बनवड़	-9.5704
▁लेलेंज	-9.57041
▁नाटोर	-9.57109
▁रंडो	-9.57122
▁अदमे	-9.57123
न्दु	-9.57168
▁सैरी	-9.57181
▁टिक	-9.57234
▁बदलाव	-9.57263
▁किसम	-9.5729
ायतोना	-9.57344
जोन	-9.57344
▁अम	-9.57501
▁हिस	-9.57538
▁मांग	-9.57619
▁हुड़ना	-9.57665
▁बाताय	-9.57702
▁सोन	-9.57883
k	-9.57982
▁राजधानी	-9.57983
▁फिल्म	-9.57983
▁जहाज	-9.57984
▁प्रयोग	-9.58012
▁कुसिर	-9.58019
▁टोड	-9.58053
▁तिरिय	-9.58091
▁इग्गा	-9.58096
▁कर्रियनह	-9.5822
▁रै	-9.58292
अन	-9.58334
▁तिके	-9.58404
▁मन्दाना	-9.58422
▁इवेह	-9.58545
ल्‍लो	-9.5856
▁तिंद	-9.586
▁ओसोर	-9.5875
▁दादी	-9.58782
▁संगेय	-9.58798
▁कर्	-9.5883
▁कमायि	-9.58846
▁माड़	-9.58902
▁प्रणाली	-9.58935
▁मुंबई	-9.58935
▁विकेट	-9.58938
▁अध्यक्ष	-9.5895
on	-9.59009
▁चे	-9.59016
र्ग	-9.59038
▁गंगा	-9.59052
▁तोहाना	-9.59124
▁साबु	-9.59129
▁वेहाना	-9.59143
▁आल	-9.59204
▁आयव	-9.59278
र्न	-9.59302
▁लेयोर	-9.59322
▁पिसिहला	-9.59335
▁कासले	-9.59481
▁हिर	-9.59532
▁अस्	-9.59637
▁कियह	-9.5965
▁काश	-9.59719
▁आलेर	-9.59845
▁पड़े	-9.59873
▁बढ़े	-9.59911
▁माहोल	-9.59915
▁धर्म	-9.59939
▁टि	-9.60048
पाल	-9.60077
▁परोय	-9.60114
ेंट	-9.60156
▁उर्र	-9.60216
▁जिया	-9.60326
▁इवेन	-9.60351
ंब	-9.60423
िश	-9.60505
▁पिसिहना	-9.60632
▁अंग	-9.60732
▁बाई	-9.60765
▁कृषि	-9.60867
▁विशेष	-9.60867
▁इसकुल	-9.60892
▁गत्ती	-9.60902
▁हुजुम	-9.60907
▁मेलाय	-9.60971
▁पेकल	-9.60974
किट	-9.60996
▁प्रेस	-9.61
▁मत्तोन	-9.61123
वायना	-9.61177
▁चुक	-9.612
▁पुटयतंग	-9.61289
▁पुरूड़	-9.61293
िरिप	-9.61348
▁बेसकेय	-9.61352
▁तिंदना	-9.61591
▁आजी	-9.61663
▁गोतिया	-9.61729
▁इन्	-9.6174
▁अन्नम	-9.61826
▁मेट्रो	-9.61848
▁इस्कुल	-9.61856
▁हितुर	-9.61862
▁पीएम	-9.61875
▁आसीद	-9.61876
▁लगात	-9.61939
रोजगार	-9.61972
ent	-9.62049
▁शु	-9.62063
▁हूड़ला	-9.62275
▁पंडायता	-9.62481
▁मतेक	-9.62512
▁मदद	-9.62574
एम	-9.62801
▁सुविदा	-9.62838
▁मन्दाकोम	-9.62839
▁जुड़े	-9.6284
▁मनवालोरा	-9.62854
▁बढ़हे	-9.62872
▁वरो	-9.6296
▁मुच	-9.6298
▁हनुम	-9.62982
▁वर्रोर	-9.63054
क्के	-9.63146
▁बड़े	-9.63281
▁फोन	-9.63283
▁दायर	-9.63393
▁वहच	-9.63463
ंध	-9.63483
▁आयु	-9.635
▁हीया	-9.6357
ुंन	-9.63697
▁पसिह	-9.63708
▁हारे	-9.63786
▁मौ	-9.63799
▁दड़	-9.63806
▁पैयस	-9.63824
▁लय्योर	-9.63838
▁सुविधा	-9.63838
▁अशो	-9.6384
▁तम्मो	-9.6384
बंध	-9.63852
▁पोट्टा	-9.63912
ic	-9.63935
▁पुल्‍ला	-9.63983
बार	-9.64128
▁पड़हेह	-9.64255
▁पंडयता	-9.64314
ियना	-9.64356
▁पोर्र	-9.64387
▁साफ	-9.64493
कृत	-9.6453
▁जुग	-9.646
▁जवान	-9.64744
▁प्रशासन	-9.64848
▁पोड्द	-9.64848
▁बराबर	-9.64849
▁ज्ञान	-9.6485
पोदेलंग	-9.64859
▁बंगाल	-9.6486
▁अभि	-9.64913
▁सरबि	-9.6494
न्दूर	-9.64943
▁सीट	-9.65043
ग्रह	-9.65256
▁बरसिह	-9.65296
▁मोहे	-9.65318
▁पाट	-9.65332
▁पिटे	-9.6555
▁पोयस	-9.65614
न्तंग	-9.65636
डे़	-9.65648
▁मंदिर	-9.65651
▁पर्रवा	-9.65833
च्छ	-9.6585
E	-9.65868
▁हन्नुम	-9.65868
▁सुधरे	-9.65873
▁डोडक	-9.65887
▁मुदिय	-9.6593
▁गुंदा	-9.65949
▁रेलवे	-9.66021
▁शक्ति	-9.66085
▁ओकोह	-9.66282
ड़िय	-9.66475
▁मरका	-9.66515
▁एम	-9.6652
द्य	-9.6659
▁दियंग	-9.66615
▁साय	-9.66639
▁आमत	-9.66673
▁मस	-9.6678
▁कर्रसोर	-9.66816
▁पुनंग	-9.66842
▁स्थिति	-9.66899
▁शास्त्री	-9.669
▁बनवाड़	-9.669
▁हुडिलंग	-9.669
▁मुसुर	-9.66902
▁अपूना	-9.66904
▁नकशा	-9.6691
▁बरसा	-9.66912
▁राज्‍य	-9.66992
▁क्र	-9.66999
▁वेड	-9.67035
स्‍क	-9.67039
▁ओड़दे	-9.67106
वलोर	-9.67251
▁दस	-9.67273
▁गलत	-9.67358
▁जान	-9.67392
वाह	-9.67672
le	-9.67675
हन्ना	-9.67742
▁सीन	-9.67766
▁नौ	-9.67879
▁विश्वविद्यालय	-9.67941
▁व्यावसायिक	-9.67941
▁जलवायु	-9.67941
▁फायदा	-9.67942
▁मिट	-9.68009
▁माह	-9.68075
▁सवाल	-9.68128
▁सोच	-9.68161
वेक	-9.6817
▁चेत	-9.68295
▁ओद	-9.68313
वेद	-9.68398
▁नाटा	-9.68418
▁सूल	-9.687
▁उपजे	-9.68711
▁पर्रक	-9.68734
▁कितोर	-9.68759
▁मेह	-9.68905
▁टप्पी	-9.68997
▁तुरते	-9.69022
▁उस	-9.6905
▁इद्देक	-9.69081
▁बेरेह	-9.69154
▁नोट	-9.69173
▁मम्म	-9.69198
▁प्रकार	-9.69341
▁एन्दाना	-9.69352
▁चुमुकले	-9.69354
▁बसे	-9.69359
▁बिगरे	-9.69562
▁कोस	-9.69569
▁सोबाय	-9.69595
▁उर्रस	-9.69611
▁सबो	-9.69617
▁पेसला	-9.69637
▁हरसु	-9.69658
▁बाद	-9.69708
▁यु	-9.69751
▁चीन	-9.69765
▁आतोर	-9.69788
▁बव	-9.70029
▁मज	-9.70042
▁पंजाब	-9.70058
▁गणित	-9.70058
▁गोह्ड	-9.70059
▁बित्ती	-9.70061
▁सबसे	-9.70131
▁पंडि	-9.70139
▁बाग	-9.7014
▁पीस	-9.70213
▁डंग	-9.70341
▁लिक	-9.70381
▁गुट्टा	-9.7048
▁इदमें	-9.70483
▁कर्रह	-9.70545
▁बीज	-9.706
आर	-9.70611
▁कुद	-9.7077
▁भूम	-9.70811
▁ऑप	-9.70876
▁कॉ	-9.7089
म्मा	-9.70893
िलोर	-9.7101
▁वेद	-9.71016
▁केवी	-9.71026
▁अनुसंधान	-9.71133
▁प्रकृति	-9.71133
▁संसद	-9.71149
▁लाडर्रा	-9.71157
▁शिकार	-9.71181
▁कीन्‍ता	-9.7135
कुबैय	-9.71353
न्‍तोर	-9.71392
▁बोजा	-9.7155
▁निंदले	-9.71674
▁वें	-9.7202
िहचोर	-9.72032
▁पिला	-9.72077
▁आयवह	-9.72085
▁शहर	-9.7209
▁मान्तोर	-9.72148
▁खु	-9.72171
▁करमचारी	-9.7222
▁जनवरी	-9.72225
▁पेकीह	-9.72226
▁आधार	-9.72234
▁तिरंगा	-9.72237
▁न्याय	-9.72256
▁पसेल	-9.72272
▁अव्वा	-9.72273
▁निय्या	-9.72347
▁बताय	-9.72372
▁मर्म	-9.72549
▁इपे	-9.72589
▁हिल	-9.72638
▁तिन्	-9.72641
▁मंदकोम	-9.72746
स्व	-9.72835
▁तोड़	-9.7288
▁आयीर	-9.73007
▁काय	-9.73008
▁आपे	-9.73018
▁पें	-9.73057
▁सीने	-9.73157
▁छत्‍तीसगढ़	-9.73318
▁परगुट	-9.7332
▁लड़ाई	-9.7332
▁कत	-9.73349
▁बेरेल	-9.73357
▁आदेत	-9.73381
▁पटेल	-9.73396
▁मेहना	-9.73427
▁मुदय	-9.73454
‘	-9.7353
▁वेडक	-9.73541
▁कब	-9.7358
▁वेड़का	-9.736
▁दूसरोर	-9.73706
▁गेंद	-9.73787
▁बस्के	-9.73862
▁दया	-9.74008
▁कारक	-9.74219
▁खान	-9.74392
▁साहित्‍य	-9.7443
▁बेग	-9.74485
▁बुद्ध	-9.74529
▁जाम	-9.74565
न्दी	-9.74598
▁मन्तोन	-9.74717
▁मंदूर	-9.74804
▁इदेकता	-9.74941
▁बेरहंग	-9.74991
▁दारिंग	-9.7502
▁सुल	-9.75048
▁ऐर	-9.75093
ठा	-9.75114
▁बारेन	-9.75134
▁जगा	-9.7524
▁सजे	-9.75364
▁पैसांग	-9.75405
▁बेट	-9.75418
▁उदाहरण	-9.75553
▁गणतंत्र	-9.75553
▁शांति	-9.75555
▁कुमार	-9.75568
▁पिसले	-9.75595
▁पेय	-9.75629
ंुग	-9.75744
▁सादेन	-9.75746
▁बसके	-9.75861
▁किसन्क	-9.75891
वेगरो	-9.75953
▁चार	-9.75972
▁हुड़सोर	-9.75988
▁आदि	-9.76001
▁दुसरा	-9.76051
▁कियान्ता	-9.76128
▁जोडे	-9.76274
▁तोहतुर	-9.76315
▁मांज	-9.76446
इन	-9.76525
ट्रीय	-9.76682
▁दक्षिण	-9.76689
▁मजबूत	-9.7669
▁मट्टक	-9.7669
▁हूजड़	-9.7669
▁पिट	-9.76728
▁अस्स	-9.76755
▁टेस्ट	-9.7677
▁चै	-9.76826
▁जीवे	-9.76878
टुम	-9.769
▁आजाद	-9.77081
▁बढ़	-9.77156
▁पंडस	-9.77201
▁हुड़ला	-9.77241
▁मिस	-9.7727
▁होक	-9.7728
▁वेलिय	-9.77366
▁कुस	-9.77415
▁सोना	-9.77837
▁और	-9.77839
▁सैनिक	-9.7784
▁पेहली	-9.77842
▁अव्वल	-9.77842
▁मर्रमिंग	-9.77843
▁मन्दाका	-9.77851
▁विज्जा	-9.77879
▁आसरा	-9.77908
▁पकय	-9.77934
▁मुख	-9.78043
त्व	-9.78096
▁हिय्य	-9.78124
र्श	-9.78147
▁हिलवा	-9.78152
▁दिय	-9.78166
हचोर	-9.78208
याबी	-9.78274
यतोरट	-9.78329
▁बिग	-9.78342
▁बाबा	-9.78459
▁पंडलेंग	-9.78505
▁वायो	-9.78515
▁हीतूर	-9.78548
▁किययतोरोम	-9.78603
▁इवेहना	-9.78755
▁बात	-9.78813
▁मत्त	-9.78823
ीहला	-9.78967
▁बस्तेर	-9.79002
▁बोने	-9.79043
▁नेडुम	-9.79109
▁मंगल	-9.79208
▁प्	-9.79222
▁आयकी	-9.79288
▁निव	-9.79357
▁कार्य	-9.79367
▁T	-9.79386
▁हेलड़	-9.79392
▁इच्चोक	-9.79646
▁पालन	-9.79652
देव	-9.79684
र्च	-9.79739
ाँ	-9.79783
▁नेटा	-9.79785
▁कोज	-9.79824
▁मुयत	-9.80077
▁दिव्यांग	-9.80178
▁राजस्थान	-9.80178
▁ऊर्जा	-9.80179
▁पीढ़ी	-9.80179
▁हामुर	-9.80181
▁सारूंग	-9.80184
▁एक्‍स	-9.80192
▁धरम	-9.80221
▁ओसय	-9.80242
▁असल	-9.80269
▁मन्‍तोना	-9.80308
▁हिययतोना	-9.80342
ण्	-9.80364
▁मूण्ड	-9.80366
▁किन्तोर	-9.80439
वेर	-9.8045
▁इर्रला	-9.80722
▁दार	-9.80726
▁ताकसोर	-9.80792
▁मुंड	-9.80817
िस्ट	-9.80962
▁जीकले	-9.80997
▁पुंगर	-9.81072
▁किसान्क	-9.81239
▁होड़	-9.81369
▁वेगरोय	-9.81375
▁डोंगे	-9.81381
▁अगस्त	-9.81393
▁मेहनत	-9.81422
बेरा	-9.81515
▁मंतोना	-9.81527
▁मनवा	-9.81714
▁पंदी	-9.81727
▁बर्र	-9.82
▁लाक	-9.82064
▁वड़कना	-9.82105
▁श्र	-9.82429
▁तुम	-9.82454
▁हास	-9.82532
▁अनुभव	-9.82573
▁गेंदबाज	-9.82576
▁मुनके	-9.8258
▁व्य	-9.82599
▁चलाह	-9.82615
▁मीलह	-9.82649
▁वर्षांग	-9.82839
▁B	-9.82855
▁पर्रयता	-9.82899
▁गोद	-9.82943
▁अब	-9.83016
▁जड़ी	-9.83064
▁तेजस	-9.83226
▁मराक	-9.83236
▁सुर	-9.83339
पाट	-9.83365
मेट	-9.83432
▁वेर्र	-9.83537
▁जुट	-9.8358
U	-9.83793
▁उपलब्ध	-9.83793
▁कल्याण	-9.83793
▁पोड़द	-9.83805
▁नालूंग	-9.83807
▁आयकन	-9.83834
▁रूपयंग	-9.83843
▁जूड़	-9.8393
▁नाटक	-9.84077
▁विस	-9.84111
▁केल्क	-9.84199
▁हुज	-9.84225
▁गुटा	-9.84246
▁पक्ष	-9.84363
▁सैक	-9.84368
▁उत	-9.8457
▁पढ़ेह	-9.84669
▁बदला	-9.84763
▁तकनीकी	-9.84933
▁मजा	-9.84979
▁साप	-9.84986
I	-9.85027
▁पहचान	-9.85028
▁हूजड़	-9.85028
▁समस्या	-9.85029
▁सिनेमा	-9.8504
▁जुजे	-9.85124
▁मीडिय	-9.8516
▁नेली	-9.85174
वंश	-9.8524
▁M	-9.85273
▁वाले	-9.85274
▁माकून	-9.85466
▁अचोन	-9.85512
▁कमेय	-9.85518
नार्रीण	-9.85554
▁भावना	-9.85647
▁चाल	-9.85663
िचर	-9.85745
माले	-9.85804
▁इंदाना	-9.85885
▁पण्डाना	-9.85973
स्त्र	-9.86027
▁बाज	-9.86108
▁पील	-9.8618
▁बल्लेबाज	-9.86277
▁बिश्वास	-9.86277
क्रांति	-9.86278
▁व्यवस्था	-9.86279
▁नीवाय	-9.8629
▁बौद्ध	-9.86292
नलाइन	-9.86335
▁p	-9.86356
▁मानता	-9.86415
▁पुटायतंग	-9.86533
▁इर्रस	-9.8666
▁तीरम	-9.86728
▁हुड़ाना	-9.8686
▁इवे	-9.86942
ध्य	-9.87018
▁भाग	-9.87075
▁मंदार	-9.87111
▁असली	-9.87482
▁मायि	-9.87483
▁समुदाय	-9.87543
▁द्वीप	-9.87543
▁कड़बेह	-9.87546
▁घटना	-9.8755
▁नंबर	-9.87552
क्ले	-9.87558
▁अड्डा	-9.87605
▁कीनतोर	-9.87636
ol	-9.87662
▁पून	-9.87675
▁हूड़स	-9.87702
▁पहल	-9.87716
▁कारकाना	-9.87834
▁मानेयक्	-9.87864
▁जेव	-9.87989
▁सड़क	-9.88066
▁रोमना	-9.88087
▁बाबाल	-9.88132
▁हुर्र	-9.88139
▁गोहा	-9.88142
▁आयोग	-9.88208
र्ड	-9.88211
ंेज	-9.88268
▁संस्कृत	-9.88434
▁सहर	-9.88447
▁पुंदना	-9.88558
▁अज	-9.88667
▁महोत्सव	-9.88825
▁इस्कूल	-9.88826
▁गिर्दा	-9.88826
▁सहयोग	-9.88827
▁चन्द्र	-9.88827
▁पल्लो	-9.8883
▁सुधार	-9.88865
▁कीम्‍ट	-9.88875
▁बोय	-9.88897
▁गाड़ी	-9.88978
▁हजोर	-9.89002
▁कियानतोर	-9.89087
▁हिययतंग	-9.89101
शांत	-9.89127
▁स्था	-9.89151
मासोर	-9.89177
▁आपस	-9.89249
▁हर्रदे	-9.89383
▁हुक	-9.8939
▁आयोजन	-9.89445
▁कुड़	-9.89513
▁परतोर	-9.89534
▁नर्रकी	-9.89616
▁वंड	-9.89703
▁कर्रियसोर	-9.89762
तून	-9.89766
▁पढ़	-9.89867
▁दूसर	-9.8988
▁एट	-9.90064
▁डिव	-9.90107
िश्‍वास	-9.90124
▁प्रौद्योगिक	-9.90124
▁वैदिक	-9.90124
▁साइकिल	-9.90125
▁लक्मी	-9.90125
▁पुरखा	-9.90126
▁जैव	-9.90129
▁गंदला	-9.90131
▁दीरे	-9.90145
▁नोमुर	-9.90167
▁हेय	-9.90273
▁जिंल	-9.9029
▁असम	-9.90383
▁परता	-9.90393
▁वियर	-9.90417
▁फि	-9.90565
माट	-9.90622
अलगे	-9.90679
न्‍त	-9.90766
▁पंडयतोर	-9.9083
▁कियायतोना	-9.9085
▁मिर	-9.9087
▁ऑद	-9.90894
ानिक	-9.90904
▁जावा	-9.90916
▁पिटो	-9.90957
▁एताना	-9.91024
▁लागा	-9.91096
बात	-9.91395
▁भाजपा	-9.9144
▁निपटे	-9.91441
▁मुख्यमंत्री	-9.91444
▁दायनुर	-9.91488
▁जम्मू	-9.91492
▁केविट	-9.91518
▁दिशा	-9.91523
▁कटाव	-9.91544
▁पुटान्ता	-9.91623
▁मावोर	-9.91628
▁उड़	-9.91635
▁आयकोम	-9.91652
▁मालेर	-9.918
षण	-9.91821
▁वेहाट	-9.9185
▁कियाकोम	-9.91894
''	-9.91905
▁लै	-9.91985
▁वान्ता	-9.92075
▁दुर	-9.92144
▁अचो	-9.92329
▁निगा	-9.92695
▁नरहेल	-9.92774
▁कय्यो	-9.92774
▁मंत्रालय	-9.9278
▁तंत्र	-9.92794
▁रोचे	-9.92901
▁संघ	-9.92912
▁अडीय	-9.9292
▁वल्ले	-9.92965
▁तीह	-9.92966
▁कोंडा	-9.93034
▁वेहला	-9.9304
▁तोहयता	-9.93163
▁लाडरा	-9.93212
▁डु	-9.93292
िगा	-9.93308
▁अचय	-9.93333
▁उन्ड	-9.93359
▁जारी	-9.93578
▁कियि	-9.93855
▁हीतोर	-9.93916
▁मांता	-9.93929
ियो	-9.93969
▁पुन्न	-9.9404
▁दूसरो	-9.94081
▁पाड़	-9.94086
▁किरतात्क	-9.94125
▁प्रमुख	-9.94125
▁फोटो	-9.94125
▁हप्ता	-9.94125
▁मतलब	-9.94128
▁अदामे	-9.94142
▁किरया	-9.94155
▁कालेज	-9.94161
▁सां	-9.94246
▁नेलिने	-9.94291
▁कपाट	-9.9435
▁आंत	-9.94394
▁पैदा	-9.94446
▁मंदान	-9.94462
▁ऊसा	-9.94534
▁हुड़स	-9.94635
आपुन	-9.94684
बाबो	-9.94798
▁चरक	-9.94811
▁पेन्क	-9.94999
पिन	-9.95042
▁सफल	-9.95119
त्री	-9.95155
▁बेड़	-9.95275
N	-9.95494
▁कम्प्यूटर	-9.95494
▁हिमालय	-9.95495
▁उचुह	-9.95495
▁तलिहक	-9.95497
▁डगुर	-9.95498
▁विनती	-9.95501
▁सुपर	-9.95598
▁परवोर	-9.9567
▁अमेरिका	-9.9573
जोड़	-9.95867
▁पय्स	-9.95873
▁R	-9.95876
▁गोहड	-9.95919
▁तोरोम	-9.96023
र्ष	-9.96096
▁दायतंग	-9.96102
▁जरूरत	-9.96122
▁पंडायतोर	-9.96216
▁डोले	-9.96427
▁रवा	-9.9652
हुल	-9.96598
▁केज	-9.96611
▁तमिलनाडु	-9.96883
▁धार्मिक	-9.96883
ive	-9.96883
▁सायकेल	-9.96884
▁साइ	-9.96886
▁जवाब	-9.96887
▁अच्चो	-9.96892
▁स्वच्छ	-9.96908
▁वर्सा	-9.96921
▁कीमोत	-9.96925
▁जंगो	-9.96928
▁मंदकी	-9.96975
▁P	-9.96982
▁बंड	-9.97036
▁गेतल	-9.9705
▁वीर	-9.97113
▁लोरिट	-9.97157
▁मायोर	-9.97208
▁सुरू	-9.97272
▁कियानता	-9.9747
योग	-9.97606
▁मॉ	-9.9768
▁डिया	-9.97716
▁पाय	-9.97818
ation	-9.97986
▁केयना	-9.98123
'	-9.98283
▁जागरूक	-9.98292
▁मशीन	-9.98292
▁मंदाकन	-9.98293
▁हिलवोर	-9.98308
य्यतोर	-9.98318
▁समिति	-9.98336
ेक्ट	-9.98396
्ध	-9.98397
▁मन्तंग	-9.98441
▁तिगे	-9.98466
▁चौक	-9.98525
▁आदुर्क	-9.98569
▁चलह	-9.98591
▁कच्च	-9.98652
▁आन्‍ता	-9.98652
▁सफलता	-9.98698
▁हेवो	-9.98823
▁पुट्	-9.98956
णु	-9.99246
धार	-9.99366
▁हेवोर	-9.99497
▁मेहनोत	-9.99721
▁कसरेत	-9.99721
▁पक्की	-9.99722
▁प्रसाद	-9.99722
▁पिरती	-9.99725
▁छाप	-9.99825
▁पड़ेह	-9.99845
▁फु	-9.99926
▁निन्द	-9.99994
▁वेड़क	-9.99998
▁नेहना	-10.0006
▁मुड	-10.0011
▁नाकून	-10.0012
▁चुने	-10.0015
▁वरोड़	-10.0016
▁इर्रसोर	-10.0027
▁भाव	-10.0031
▁उसा	-10.0046
▁गटना	-10.0049
▁पण्‍डले	-10.0058
el	-10.0083
रूप	-10.0092
ूटर	-10.0094
▁पुंज	-10.0108
▁इंटरनेट	-10.0117
▁जिम्मेदारी	-10.0117
▁हुचुक	-10.0117
▁अकचके	-10.0117
▁लहलहे	-10.0117
▁अन्‍नम	-10.0117
▁सड़ेक	-10.0117
नैतिक	-10.0118
▁पड़योर	-10.0118
हमेशा	-10.0118
▁नेसक	-10.0124
▁वायतंग	-10.0124
▁कमजोर	-10.0131
ra	-10.0132
▁ऑफ	-10.0134
▁महिना	-10.0135
▁कार्ड	-10.0137
▁मंदलेर	-10.0141
▁पसय	-10.0147
गढ़	-10.0152
▁सत्य	-10.0166
▁परब	-10.017
S	-10.0177
▁हियाला	-10.0197
▁कमका	-10.0253
▁माच	-10.0262
en	-10.0262
▁सुभाष	-10.0264
w	-10.0264
▁कर्नाटक	-10.0264
▁सम्पति	-10.0264
▁विभाग	-10.0264
▁बाड़गो	-10.0264
▁ज्वार	-10.0264
▁करोड़	-10.0264
ेश्वर	-10.0266
▁अड़चन	-10.0266
▁किरिया	-10.027
▁तड़ाय	-10.027
▁टीबी	-10.0271
▁जिये	-10.0275
▁लिहि	-10.0276
▁मानगुन	-10.028
▁लक्य	-10.0282
▁पीड़ी	-10.0282
▁अच्‍च	-10.0283
▁पिसहाना	-10.0287
हुड	-10.0288
▁बुद्द	-10.0294
▁ड्र	-10.0306
▁शि	-10.0307
▁बेने	-10.0316
P	-10.0326
▁मंजोर	-10.033
▁सिरजेह	-10.0354
▁पिंड	-10.0359
▁घे	-10.0361
▁रोमाना	-10.037
▁बेसके	-10.0375
▁आन्दुर	-10.039
▁आयवा	-10.0401
▁कर्मचारी	-10.0413
▁मध्यप्रदेश	-10.0413
▁इसकूल	-10.0413
▁नरेन्द्र	-10.0414
▁उच्चुक	-10.0417
▁गुड़	-10.042
▁इर्रले	-10.0427
▁दै	-10.0434
▁जीये	-10.0449
▁अक्	-10.045
▁कर्सना	-10.0463
▁पियल	-10.0464
▁दुकन	-10.0473
▁कार्र	-10.0475
▁चू	-10.0509
▁तमोर	-10.0511
मिड़	-10.0527
▁वेड़क	-10.0531
▁उद्द	-10.0532
▁पुटाना	-10.0533
▁टेक्	-10.0536
▁पर्रय	-10.0538
ँग	-10.0548
▁वायले	-10.055
▁इस्	-10.0555
▁हिन्दुस्तान	-10.0565
▁अक्षां	-10.0565
▁लोकसभा	-10.0565
▁नायडू	-10.0565
▁सड़ग	-10.0567
▁निगम	-10.0568
▁नजेर	-10.0569
▁पंडवालोर	-10.057
▁वेह्ह	-10.057
▁तिन्‍द	-10.0581
▁हीयाना	-10.0588
▁नीमा	-10.0588
▁आंदुंग	-10.059
▁लोतुन	-10.0591
▁अवसंड	-10.0592
▁मुकियाल	-10.0593
▁कोज्ज	-10.0593
▁इतवार	-10.0594
▁कीन्दोम	-10.0598
▁समझ	-10.0619
▁पीर्र	-10.0629
▁तताना	-10.063
▁पड़ाना	-10.0637
▁दादा	-10.0649
▁हूर	-10.0656
▁हिसा	-10.0693
▁सियान	-10.0695
▁हंदले	-10.0699
▁बोद्द	-10.07
▁नोकसा	-10.0719
▁बीजेपी	-10.0719
▁वीडियो	-10.0719
▁अवसन	-10.0719
▁;	-10.0729
▁तिंजोर	-10.073
स्कुन	-10.0734
▁दुख	-10.0736
▁कोंदा	-10.0741
▁नुका	-10.0744
▁बोर्ड	-10.0751
▁चीज्क	-10.0751
▁तिंदाना	-10.0752
▁कविता	-10.0766
ार्थ	-10.0779
ारमिक	-10.0782
▁कारण	-10.0782
▁युवा	-10.0791
▁होले	-10.0798
▁अगर	-10.0805
▁वर्ष	-10.0809
▁मारीह	-10.0812
▁गून	-10.0819
▁कर्रसवालोर	-10.0823
▁संसाधन	-10.0875
▁आतंकवाद	-10.0875
▁कुटुम्ब	-10.0875
▁सांसद	-10.0875
▁बन्ने	-10.0878
▁कत्‍त	-10.0884
▁टीवी	-10.0885
▁तिकेडह	-10.0887
▁कवि	-10.0901
▁सत्ते	-10.0906
▁मालिक	-10.092
▁किन्ता	-10.0931
▁कियाकट	-10.094
▁पुनिह	-10.0973
▁लैय	-10.0984
▁आतुंग	-10.0985
ग्राम	-10.1005
▁बनेमाय	-10.1015
ª	-10.1034
▁चिकित्सा	-10.1034
▁जिम्मेवार	-10.1034
▁विड़्च	-10.1034
▁नुलपे	-10.1034
▁पीड़ी	-10.1035
▁निवेश	-10.1035
▁सिंगार	-10.1036
▁तर्रिय	-10.1037
▁सहरेह	-10.1039
▁खुश	-10.1045
▁वीं	-10.1046
▁निकेडह	-10.1047
▁मायकट	-10.1072
▁गोतियालोर	-10.1083
▁कीन्दूर	-10.1087
▁वेहयता	-10.1089
▁गेती	-10.1093
▁बोचोक	-10.1098
ड्डी	-10.1152
▁काल्क	-10.1153
▁बोट	-10.1173
▁मंच	-10.118
्‌	-10.1194
▁पश्चिम	-10.1195
▁प्रक्रिया	-10.1195
▁लगभग	-10.1195
▁सुप्री	-10.1195
▁दबाव	-10.1195
‌	-10.1196
▁दीदी	-10.1196
▁भगव	-10.1199
निर्भर	-10.1199
▁केवाय	-10.1201
▁जागेह	-10.1202
▁मोड़िय	-10.1204
▁करम	-10.1205
▁नरिल	-10.1212
▁जवान्क	-10.1214
▁F	-10.1218
▁इनाम	-10.1221
▁डेटा	-10.1226
▁समेय	-10.1227
▁सुख	-10.1231
▁कीयान्तोर	-10.1234
▁आराम	-10.1237
▁अरले	-10.1241
▁इर्रायता	-10.1258
पोर्ट	-10.1263
▁बातंग	-10.127
रंगनंग	-10.1286
▁बेरह	-10.13
▁देवी	-10.1302
▁हेवालोर	-10.1309
आई	-10.1309
ज्जा	-10.1319
▁वड़क्	-10.1342
▁पंड़	-10.1348
▁मनवल	-10.1352
▁आयुर्वेद	-10.1359
▁अस्‍पताल	-10.1359
▁कौशल	-10.1359
▁नुकसान	-10.1359
▁विधायक	-10.1359
▁हूजुम	-10.1359
▁बच्चन	-10.136
▁भागीदार	-10.136
▁शतक	-10.1361
▁गनित	-10.1362
▁मंदन्ना	-10.1364
बगीचा	-10.1367
▁अध्य	-10.1368
▁अच	-10.1371
▁मन्ने	-10.1372
▁निमट	-10.1377
▁सलाह	-10.1378
▁रमन	-10.1381
▁पालेन	-10.1382
▁वालेर	-10.1417
▁किस्स	-10.1427
▁सिरजे	-10.1429
▁मीनक	-10.1431
▁खो	-10.1442
▁हीयि	-10.1443
▁बरसयता	-10.1445
▁अपे	-10.1446
▁जरमें	-10.1455
▁कीतोम	-10.1476
मूल	-10.1501
▁आयतोना	-10.1502
▁पीढ़ी	-10.1526
▁एशिया	-10.1526
▁देशवासी	-10.1526
▁कसरत	-10.1527
▁देहात	-10.1528
▁नेहरू	-10.1528
▁बोट्क	-10.1539
मेंट	-10.1539
▁परदेश	-10.1545
▁तातिल	-10.157
▁अमर	-10.1578
▁रंगीन	-10.1579
▁पड़काना	-10.1585
▁हालत	-10.1585
▁इनतोर	-10.1599
▁पर्रतंग	-10.1602
▁किययतोन	-10.1605
▁कियातोना	-10.1608
▁वर्रोड़	-10.1617
▁बर्रसिह	-10.169
▁संकल्प	-10.1695
▁बैठका	-10.1695
▁बोच्चो	-10.1695
▁कंपनि	-10.1695
▁बिन्ती	-10.1695
▁अंताज	-10.1696
▁मिड	-10.1697
▁विजय	-10.1698
▁विवेकानंद	-10.17
▁पार्र	-10.1702
▁पेपर	-10.1706
▁मारिह्च	-10.1715
me	-10.1719
▁लागयता	-10.1721
▁लोप्पाड	-10.1722
▁कर्रसानंग	-10.1723
▁घाट	-10.1724
▁पोलो	-10.1735
▁बर्सहना	-10.1741
▁माई	-10.1744
▁अगड	-10.1747
▁पंका	-10.1749
▁गवह	-10.1752
▁प्रो	-10.1756
वेयर	-10.1774
▁जबाबदार	-10.1776
▁वै	-10.1785
▁उपज	-10.1813
▁मंत्र	-10.1815
▁परमा	-10.1825
▁अर्थव्यवस्था	-10.1867
▁नुल्पे	-10.1867
▁महाराट्र	-10.1867
संरक्षण	-10.1867
▁नरकीय	-10.1868
▁तुलसी	-10.1868
▁भाखा	-10.1871
▁ओहनाह	-10.1872
▁ऐव	-10.188
▁दुवार	-10.188
▁पर्रले	-10.1882
▁इनोन	-10.1918
▁कुन्‍द	-10.1925
▁बरसायता	-10.1928
▁तिन्दा	-10.1952
▁मूने	-10.1979
▁मातेक	-10.1995
▁पंच	-10.2007
▁दिसा	-10.2022
▁विविधता	-10.2043
L	-10.2043
दौलत	-10.2043
▁चमके	-10.2044
▁प्रकाश	-10.2044
▁गुहरा	-10.2045
▁निर्देश	-10.2045
▁अवके	-10.2047
▁हुजूम	-10.2047
▁जूत	-10.205
▁किय्यता	-10.205
▁सरदार	-10.2051
जूद	-10.2062
▁वेन्ड	-10.207
▁बौ	-10.2078
▁तड़य	-10.2089
ड्डा	-10.2093
▁मत्तोरोम	-10.2096
वीं	-10.2107
▁मैच	-10.212
▁उदि	-10.212
▁मल्ल	-10.215
▁पोयो	-10.2178
▁कर्रियाना	-10.219
▁विति	-10.2218
▁आधुनिक	-10.2221
▁कृण	-10.2221
▁पिलिम	-10.2222
▁सयुंग	-10.2222
▁बित्ति	-10.2223
▁बिकास	-10.2224
▁बानिंग	-10.2227
▁जरया	-10.2237
▁रेन्ड	-10.2238
क्चा	-10.2271
▁तरग	-10.2279
▁चेते	-10.2283
▁नोर्रसोर	-10.2289
▁पार्क	-10.2308
▁भू	-10.2309
ायनूर	-10.2318
▁खोज	-10.2335
▁सोराना	-10.2346
▁दायतोना	-10.2366
▁बेरसिह	-10.2387
▁पुलुस	-10.2391
▁टैगोर	-10.2403
▁सेंवेंर	-10.2404
▁कुटूम्	-10.2408
▁मुद्य	-10.2414
▁मंदाकि	-10.2427
▁दीप	-10.243
▁साधन	-10.2431
▁पुट्टो	-10.2431
▁दंदा	-10.2436
▁पिसहना	-10.2438
▁हुजड़	-10.2438
▁पेड़	-10.2442
र्ण	-10.2442
▁इर्रायतोर	-10.2452
▁हन्ज	-10.2452
▁जून	-10.2455
▁टहक	-10.2458
▁आशा	-10.2467
▁सामान	-10.2479
▁बिचारिनुंग	-10.2479
▁समान	-10.2499
▁लड़े	-10.2504
▁पेट	-10.2509
▁डॉल्	-10.2533
जोड़	-10.2546
th	-10.2547
▁बीडार	-10.2567
▁चंद्र	-10.2587
▁उत्पाद	-10.2588
▁डॉक्टर	-10.2588
▁प्रशिक्ष	-10.2588
▁बांग्लादेश	-10.2588
▁हिम्मोत	-10.2588
▁अंतरिक्ष	-10.2588
▁समृद्ध	-10.2588
▁मेहमोत	-10.2588
▁शहीद	-10.2589
▁घंटा	-10.2589
▁चटनी	-10.2589
▁स्टार	-10.2589
शतरंज	-10.259
▁निवड़े	-10.2591
▁जुगाड़	-10.2592
िदास	-10.2592
▁पुंगार	-10.2593
▁मंदानूर	-10.2598
सफाई	-10.2598
धारण	-10.2598
▁लिही	-10.2598
▁रोंडा	-10.2601
ीकरण	-10.2608
▁कोर्ट	-10.2611
ईरूम	-10.2617
▁बचोके	-10.2619
▁एस्स	-10.2623
▁पोसिय	-10.2625
▁रण्‍ड	-10.2638
▁मिट्ट	-10.2652
▁तिंज	-10.2665
▁पेश	-10.2669
▁ओयतोर	-10.2681
▁हातुर	-10.2704
▁कीययता	-10.2714
▁मायनंग	-10.2738
▁गुणवत्ता	-10.2777
▁ग्लोब	-10.2777
▁टप्‍पी	-10.2777
▁मोबाईल	-10.2777
▁विरासत	-10.2777
▁बाक्या	-10.2778
▁रोहू	-10.2778
▁कोलांज	-10.2778
▁फसल	-10.2781
▁पालिका	-10.2787
▁डेराकन	-10.2788
▁जलसंग	-10.2789
▁तीहार	-10.2796
▁मुच्च	-10.2813
धान	-10.2816
▁कुर्	-10.2819
▁अंतर	-10.2834
▁रेख	-10.2836
▁मिलेमाय	-10.2837
▁जमे	-10.2867
ीहच	-10.2886
बूतो	-10.2887
▁बेरसीह	-10.2903
▁नित्स	-10.2918
▁केरल	-10.2924
▁तर्रग	-10.2933
▁वडक	-10.2956
▁नेटवर्क	-10.2969
▁प्रेरणा	-10.2969
▁खूबे	-10.2969
▁बीमारी	-10.297
▁मन्दाकट	-10.297
▁विद्यालय	-10.2971
▁रिपोर्ट	-10.2971
▁आदर्श	-10.2973
▁देहतुर	-10.2973
▁तापमान	-10.2974
il	-10.2975
▁जल्दी	-10.2975
▁दवंग	-10.2976
▁विकस	-10.2979
▁नाटेनोर	-10.298
▁मत्तोम	-10.298
▁प्रेम	-10.2984
▁अर्थ	-10.2985
▁वेल्‍ला	-10.2985
▁पुड़िय	-10.2985
्रेस	-10.2997
▁पुट्यता	-10.3002
▁सेतह	-10.3023
▁गुरिय	-10.3023
▁हायले	-10.3027
▁पुन्‍ना	-10.304
▁नेपाल	-10.3043
▁वातेक	-10.3051
▁चक्क	-10.3062
▁डेव	-10.3068
▁जुडे	-10.3097
▁पैय्स	-10.3113
▁तीज	-10.3139
▁अक्टूबर	-10.3165
▁आस्ट्रेलिया	-10.3165
▁गालिब	-10.3165
▁वैश्विक	-10.3165
▁उडिला	-10.3166
▁पांडे	-10.3166
▁गूहरा	-10.3166
▁पक्का	-10.3166
▁पैसला	-10.3166
▁कुसरिंग	-10.3169
शिकचा	-10.3171
▁पूर्व	-10.3175
▁ईस्ट	-10.3182
▁अवेहकुन	-10.3185
▁सैयरी	-10.3197
हनेक	-10.3206
▁परतोरट	-10.3216
▁बोगा	-10.3241
▁बेरसयता	-10.3243
▁वेल्ल	-10.3244
▁कीन्ता	-10.3256
▁आदूर	-10.328
▁बड़क	-10.3312
▁करिह	-10.3315
▁मंगे	-10.3334
▁खुद	-10.3338
▁मायवालोर	-10.3344
ाइट	-10.3351
▁पुरातत्व	-10.3365
O	-10.3365
▁शिल्प	-10.3366
▁कुडुह	-10.3366
▁उपयोद	-10.3366
▁नूकंग	-10.3366
▁इगाडोर	-10.3366
▁बीनकर	-10.3366
▁मुद्दा	-10.3366
▁वर्रिय	-10.3366
▁अवहारी	-10.3366
▁जैन	-10.3367
▁शासन	-10.3367
▁सय्क	-10.337
▁हुडुक	-10.3376
▁स्कुल	-10.3378
▁चालू	-10.3389
▁किय्ना	-10.3398
▁लगार	-10.3412
▁करसाना	-10.3431
▁मुण्ड	-10.3443
▁सहायता	-10.3452
▁केति	-10.3468
▁गोतया	-10.3477
▁बेस्के	-10.3515
न्तोन	-10.3554
▁डिग्री	-10.357
▁साम्राज्य	-10.357
▁लाडर्रालोरिट	-10.357
▁भरोसा	-10.357
▁हासपेन	-10.357
▁पेर्रके	-10.357
प्राकृतिक	-10.357
▁शेयर	-10.357
▁मोटोह	-10.357
▁पुस्तक	-10.357
▁वल्लो	-10.357
▁इलाका	-10.3571
▁राट्रपति	-10.3572
▁तमिल	-10.3575
ारवाही	-10.3583
▁पुलुस्क	-10.3583
▁ईर्र	-10.3585
▁आधारित	-10.3586
▁टाटा	-10.3587
▁मार्च	-10.3592
▁बिडर	-10.3599
▁लेहरा	-10.3614
▁जीकतुर	-10.363
▁सबलोर	-10.363
हनय	-10.3646
▁चलेमाय	-10.3658
दुल्ही	-10.3691
▁मन्दार	-10.3694
वैध	-10.3716
▁आपून	-10.3717
et	-10.3742
▁होड़िय	-10.3764
▁हड़प	-10.3764
▁अंद	-10.3765
▁विज्‍जा	-10.3778
▁उद्यान	-10.3778
▁हिंगसा	-10.3779
▁मेटोर	-10.3779
▁समूह	-10.378
▁बिगयान	-10.3782
्दानुर	-10.3784
▁भोज	-10.3785
▁खुबे	-10.3786
▁गुम्मा	-10.3787
ch	-10.3791
▁मेट्टा	-10.3793
▁हारूंग	-10.3794
▁हुजड़	-10.3804
▁फेस	-10.3806
▁नीर्र	-10.3812
▁अरेत	-10.382
▁बेरसिहला	-10.3827
▁गिल	-10.3829
▁पत्र	-10.3832
▁पोंगयता	-10.3837
▁त्रि	-10.3839
▁काको	-10.3861
ॉर्	-10.3898
लड़ेय	-10.3906
▁पोतिह	-10.3923
▁रण्‍डो	-10.395
▁पड़योर	-10.3983
▁कोशिद	-10.3991
▁मुस्लिम	-10.3991
▁नृत्य	-10.3991
▁बेवसता	-10.3991
▁समाधान	-10.3991
▁पड़हई	-10.3991
▁संतुल	-10.3991
▁रन्‍डो	-10.3991
▁बोगय	-10.3993
▁पिकोर	-10.3993
▁पर्रवह	-10.3994
▁हुडिलोर	-10.3995
▁एवनाह	-10.3996
▁वर्मा	-10.3996
▁वतले	-10.4001
▁कोन्दा	-10.4008
▁हेवल	-10.4011
▁इगाडह	-10.4016
▁मान्यता	-10.4017
धीरे	-10.4027
ियों	-10.4029
....	-10.4031
▁सुआ	-10.4031
▁कीयान्ता	-10.4034
▁बरसहाना	-10.4036
▁हियन्‍ना	-10.4041
▁जोहर	-10.4061
▁मंदुग	-10.4069
▁इप्पे	-10.4109
ओकोह	-10.4121
▁बर्सिह	-10.4154
▁सांस्कृतिक	-10.4208
W	-10.4208
ंजपवद	-10.4208
▁प्रेरित	-10.4208
▁लडे़य	-10.4208
▁मड़ही	-10.4208
▁बल्के	-10.4208
▁खबीर	-10.4208
▁लड़ई	-10.4208
My	-10.4209
▁बांटा	-10.4209
▁बस्‍के	-10.421
ेन्द्र	-10.421
▁तरिका	-10.4213
▁जनमन	-10.4214
▁बेनो	-10.4216
▁यूपी	-10.4217
▁उद्देश्	-10.4219
▁उकड़	-10.4221
▁नेसकतुर	-10.4224
▁परिण	-10.4224
▁चित्र	-10.4225
बूटी	-10.4228
▁दलसा	-10.4233
ंेग	-10.4235
▁मारेकिंग	-10.4236
▁पड़ानंग	-10.4237
▁जीवोन	-10.4244
▁इन्तोना	-10.4247
▁उन्ज	-10.4248
▁मन्तोरोम	-10.4255
▁लाखो	-10.428
A	-10.4343
लेयोर	-10.4361
▁सरबोन	-10.4425
▁प्राथमिक	-10.443
"	-10.443
▁चुनौती	-10.443
▁दड़दड़ा	-10.443
▁बुर्रकल	-10.443
▁कानहुन	-10.443
▁गोगोड़	-10.443
▁बल्कि	-10.443
▁आयमाकी	-10.443
▁कागेज	-10.443
▁मॉडल	-10.4431
▁मेंदुद	-10.4431
▁धारा	-10.4433
▁कुड़ुह	-10.4434
▁महादेव	-10.4435
▁विक्रम	-10.4435
▁कोट्टुह	-10.4439
▁नरका	-10.4455
▁कथा	-10.4463
tion	-10.448
▁आकींग	-10.4482
▁धिय	-10.4503
▁सिंगर	-10.4504
▁शिक्ष	-10.4628
▁अफ्रीका	-10.4658
▁छीताफ	-10.4658
▁सुरक्षित	-10.4658
▁कागजात	-10.4658
▁कोशिश	-10.4658
▁मोदोल	-10.4658
▁कठिन	-10.4658
▁हाजिर	-10.4658
▁मेन्दुल	-10.4658
▁कोविड	-10.4658
▁मून्ने	-10.4658
▁बरोसा	-10.4658
▁सुगुम	-10.4658
▁बाकया	-10.4659
▁आरोप	-10.466
▁हमला	-10.4664
▁पड़काना	-10.4664
▁नरूंग	-10.4665
▁किर्री	-10.4668
▁जोम्मा	-10.4672
▁लगवर	-10.4672
▁क्रिया	-10.4676
त्मक	-10.4679
गोत्त	-10.4682
▁ततला	-10.4692
▁एयर	-10.47
ter	-10.4711
▁वंजि	-10.4714
▁मन्दुंग	-10.4722
िल्‍ल	-10.4729
▁सप्पो	-10.4826
ंाग	-10.4829
▁सॉफ्ट	-10.489
x	-10.489
▁India	-10.489
▁झारखंड	-10.489
▁बिस्मिल	-10.489
▁हिस्‍सा	-10.489
▁नागरिक	-10.489
▁कोसिद	-10.489
▁विडियो	-10.489
▁पुंगाह	-10.4891
▁भगत	-10.4891
▁पांजा	-10.4892
▁सहारा	-10.4892
▁कयोटड़	-10.4892
▁गैस	-10.4894
▁नियंत्र	-10.4894
▁सदन	-10.4909
▁कीन्‍तोर	-10.4913
▁पडे़	-10.4917
▁दरमोत	-10.4936
▁गुप्तका	-10.4943
▁डेरक	-10.4965
C	-10.5041
▁नाहक्न	-10.5124
▁गिरर्दा	-10.5128
▁समुद्री	-10.5128
▁In	-10.5128
▁खिलाफ	-10.5128
▁हन्‍नुम	-10.5128
▁विरोध	-10.5128
▁कुट्टुम	-10.5128
▁पूछे	-10.5128
▁टेबुल	-10.5128
▁ईमानदार	-10.5128
▁ईरूह	-10.5128
▁सान्डे	-10.5128
▁बड़हे	-10.5129
▁रेडियो	-10.5129
▁परीचा	-10.5129
▁बरहोर	-10.5129
▁मुय्त	-10.5129
▁करीब	-10.513
▁लड़य	-10.5132
▁आपुह	-10.5137
▁भाभा	-10.5137
▁लूट	-10.514
▁लेयोन	-10.514
ाइड	-10.5141
▁अगुम	-10.5146
▁सपोजन	-10.515
▁मन्‍तोर	-10.5151
हिमोत	-10.5155
▁एक्ट	-10.5156
▁हूडूल	-10.5164
ेंद्र	-10.5173
▁डीया	-10.518
▁पिसीह	-10.5197
▁मूरत	-10.5201
▁मतोम	-10.5223
▁गियान	-10.5258
▁बेड़सीह	-10.527
▁समर्थन	-10.5372
नेतृत्व	-10.5372
▁इंजीनियर	-10.5372
▁बिस्वास	-10.5372
▁क्षमता	-10.5372
▁यूरोप	-10.5372
T	-10.6055
(	-10.6055
ऋ	-10.6412
V	-10.6412
ऐ	-10.7182
R	-10.7798
B	-10.9526
G	-10.9526
j	-11.0398
J	-11.0398
M	-11.1161
Y	-11.218
z	-11.3206
F	-11.4263
ऑ	-11.4263
K	-11.435
%	-11.5642
Ÿ	-11.7959
]	-11.9868
&	-12.0979
;	-12.2142
½	-12.3658
ज़	-12.3658
ळ	-12.7324
ङ	-12.9824
ऽ	-12.9824
$	-12.9824
”	-12.9824
#	-13.3158
०	-13.3158
X	-13.3158
–	-13.3158
|	-13.8158
с	-13.8158
“	-13.8158
ù	-13.8158
ऍ	-14.8151
¼	-14.8152
Q	-14.8153
q	-14.8154
H	-14.8155
औ	-14.8156
v	-14.8157
२	-14.8157
ॆ	-14.8158
=	-14.8158
Z	-14.8158
­	-14.8158
Â	-14.8158
×	-14.8158
ū	-14.8158
е	-14.8158
и	-14.8158
м	-14.8158
क़	-14.8158
१	-14.8158
฀	-14.8158
ञ	-14.8158
ग़	-14.8158
